{
  "version": "1.0",
  "truncation": null,
  "padding": null,
  "added_tokens": [
    {
      "id": 0,
      "content": "[UNK]",
      "single_word": false,
      "lstrip": false,
      "rstrip": false,
      "normalized": false,
      "special": true
    },
    {
      "id": 1,
      "content": "[CLS]",
      "single_word": false,
      "lstrip": false,
      "rstrip": false,
      "normalized": false,
      "special": true
    },
    {
      "id": 2,
      "content": "[SEP]",
      "single_word": false,
      "lstrip": false,
      "rstrip": false,
      "normalized": false,
      "special": true
    },
    {
      "id": 3,
      "content": "[PAD]",
      "single_word": false,
      "lstrip": false,
      "rstrip": false,
      "normalized": false,
      "special": true
    },
    {
      "id": 4,
      "content": "[MASK]",
      "single_word": false,
      "lstrip": false,
      "rstrip": false,
      "normalized": false,
      "special": true
    }
  ],
  "normalizer": null,
  "pre_tokenizer": {
    "type": "Whitespace"
  },
  "post_processor": null,
  "decoder": null,
  "model": {
    "type": "BPE",
    "dropout": null,
    "unk_token": "[UNL]",
    "continuing_subword_prefix": null,
    "end_of_word_suffix": null,
    "fuse_unk": false,
    "byte_fallback": false,
    "vocab": {
      "[UNK]": 0,
      "[CLS]": 1,
      "[SEP]": 2,
      "[PAD]": 3,
      "[MASK]": 4,
      "!": 5,
      "\"": 6,
      "#": 7,
      "$": 8,
      "%": 9,
      "&": 10,
      "'": 11,
      "(": 12,
      ")": 13,
      "*": 14,
      "+": 15,
      ",": 16,
      "-": 17,
      ".": 18,
      "/": 19,
      "0": 20,
      "1": 21,
      "2": 22,
      "3": 23,
      "4": 24,
      "5": 25,
      "6": 26,
      "7": 27,
      "8": 28,
      "9": 29,
      ":": 30,
      ";": 31,
      "<": 32,
      "=": 33,
      ">": 34,
      "?": 35,
      "@": 36,
      "A": 37,
      "B": 38,
      "C": 39,
      "D": 40,
      "E": 41,
      "F": 42,
      "G": 43,
      "H": 44,
      "I": 45,
      "J": 46,
      "K": 47,
      "L": 48,
      "M": 49,
      "N": 50,
      "O": 51,
      "P": 52,
      "Q": 53,
      "R": 54,
      "S": 55,
      "T": 56,
      "U": 57,
      "V": 58,
      "W": 59,
      "X": 60,
      "Y": 61,
      "Z": 62,
      "[": 63,
      "\\": 64,
      "]": 65,
      "^": 66,
      "`": 67,
      "a": 68,
      "b": 69,
      "c": 70,
      "d": 71,
      "e": 72,
      "f": 73,
      "g": 74,
      "h": 75,
      "i": 76,
      "j": 77,
      "k": 78,
      "l": 79,
      "m": 80,
      "n": 81,
      "o": 82,
      "p": 83,
      "q": 84,
      "r": 85,
      "s": 86,
      "t": 87,
      "u": 88,
      "v": 89,
      "w": 90,
      "x": 91,
      "y": 92,
      "z": 93,
      "|": 94,
      "~": 95,
      "¡": 96,
      "£": 97,
      "¥": 98,
      "§": 99,
      "°": 100,
      "±": 101,
      "²": 102,
      "³": 103,
      "µ": 104,
      "·": 105,
      "½": 106,
      "Á": 107,
      "Å": 108,
      "Æ": 109,
      "É": 110,
      "Í": 111,
      "Î": 112,
      "Ö": 113,
      "×": 114,
      "Ø": 115,
      "Ú": 116,
      "Ü": 117,
      "Þ": 118,
      "à": 119,
      "á": 120,
      "â": 121,
      "ã": 122,
      "ä": 123,
      "å": 124,
      "ç": 125,
      "è": 126,
      "é": 127,
      "ê": 128,
      "ë": 129,
      "ì": 130,
      "í": 131,
      "î": 132,
      "ñ": 133,
      "ò": 134,
      "ó": 135,
      "ô": 136,
      "ö": 137,
      "ø": 138,
      "ú": 139,
      "û": 140,
      "ü": 141,
      "Ā": 142,
      "ā": 143,
      "ă": 144,
      "ć": 145,
      "č": 146,
      "Đ": 147,
      "đ": 148,
      "ė": 149,
      "ī": 150,
      "Ł": 151,
      "ł": 152,
      "ń": 153,
      "Ō": 154,
      "ō": 155,
      "ś": 156,
      "ş": 157,
      "š": 158,
      "ū": 159,
      "ų": 160,
      "Ż": 161,
      "ž": 162,
      "ơ": 163,
      "ư": 164,
      "ʻ": 165,
      "ʿ": 166,
      "̃": 167,
      "α": 168,
      "β": 169,
      "γ": 170,
      "κ": 171,
      "μ": 172,
      "С": 173,
      "а": 174,
      "в": 175,
      "е": 176,
      "к": 177,
      "о": 178,
      "с": 179,
      "т": 180,
      "я": 181,
      "ا": 182,
      "ح": 183,
      "ص": 184,
      "ل": 185,
      "ن": 186,
      "ه": 187,
      "्": 188,
      "ก": 189,
      "ง": 190,
      "ณ": 191,
      "ต": 192,
      "ม": 193,
      "ย": 194,
      "ร": 195,
      "ล": 196,
      "ั": 197,
      "า": 198,
      "ิ": 199,
      "่": 200,
      "์": 201,
      "გ": 202,
      "დ": 203,
      "ვ": 204,
      "ზ": 205,
      "ი": 206,
      "კ": 207,
      "ო": 208,
      "რ": 209,
      "ს": 210,
      "უ": 211,
      "ც": 212,
      "ძ": 213,
      "წ": 214,
      "ხ": 215,
      "ჯ": 216,
      "჻": 217,
      "ḥ": 218,
      "ṃ": 219,
      "ṅ": 220,
      "ṣ": 221,
      "ṭ": 222,
      "ṯ": 223,
      "ả": 224,
      "ấ": 225,
      "ầ": 226,
      "ắ": 227,
      "ễ": 228,
      "ệ": 229,
      "ị": 230,
      "ớ": 231,
      "ử": 232,
      "ỳ": 233,
      "‑": 234,
      "–": 235,
      "—": 236,
      "‘": 237,
      "’": 238,
      "“": 239,
      "”": 240,
      "„": 241,
      "†": 242,
      "…": 243,
      "′": 244,
      "″": 245,
      "⁄": 246,
      "₤": 247,
      "€": 248,
      "₹": 249,
      "⅓": 250,
      "⅔": 251,
      "→": 252,
      "−": 253,
      "≤": 254,
      "☉": 255,
      "♭": 256,
      "♯": 257,
      "〈": 258,
      "〉": 259,
      "の": 260,
      "ァ": 261,
      "ア": 262,
      "キ": 263,
      "ス": 264,
      "ッ": 265,
      "ト": 266,
      "プ": 267,
      "ュ": 268,
      "リ": 269,
      "ル": 270,
      "ヴ": 271,
      "・": 272,
      "動": 273,
      "場": 274,
      "大": 275,
      "戦": 276,
      "攻": 277,
      "機": 278,
      "殻": 279,
      "火": 280,
      "礮": 281,
      "空": 282,
      "隊": 283,
      "﻿": 284,
      "～": 285,
      "th": 286,
      "in": 287,
      "the": 288,
      "an": 289,
      "er": 290,
      "on": 291,
      "ed": 292,
      "un": 293,
      "re": 294,
      "at": 295,
      "or": 296,
      "en": 297,
      "unk": 298,
      "st": 299,
      "al": 300,
      "ar": 301,
      "of": 302,
      "and": 303,
      "as": 304,
      "to": 305,
      "is": 306,
      "ing": 307,
      "es": 308,
      "it": 309,
      "ic": 310,
      "ro": 311,
      "ion": 312,
      "he": 313,
      "le": 314,
      "ou": 315,
      "ac": 316,
      "ent": 317,
      "il": 318,
      "ad": 319,
      "se": 320,
      "am": 321,
      "om": 322,
      "be": 323,
      "ly": 324,
      "was": 325,
      "for": 326,
      "ch": 327,
      "ur": 328,
      "de": 329,
      "ve": 330,
      "The": 331,
      "ir": 332,
      "-@": 333,
      "@-@": 334,
      "ol": 335,
      "im": 336,
      "wh": 337,
      "ig": 338,
      "ver": 339,
      "ow": 340,
      "wi": 341,
      "ter": 342,
      "ce": 343,
      "ay": 344,
      "with": 345,
      "con": 346,
      "that": 347,
      "ation": 348,
      "ct": 349,
      "by": 350,
      "ag": 351,
      "te": 352,
      "id": 353,
      "us": 354,
      "ot": 355,
      "ri": 356,
      "ul": 357,
      "ere": 358,
      "19": 359,
      "res": 360,
      "el": 361,
      "ap": 362,
      "ain": 363,
      "rom": 364,
      "com": 365,
      "pl": 366,
      "op": 367,
      "et": 368,
      "00": 369,
      "his": 370,
      "ut": 371,
      "mo": 372,
      "all": 373,
      "su": 374,
      "from": 375,
      "ers": 376,
      "are": 377,
      "ab": 378,
      "ther": 379,
      "li": 380,
      "um": 381,
      "pro": 382,
      "ear": 383,
      "di": 384,
      "In": 385,
      "und": 386,
      "cl": 387,
      "sh": 388,
      "ate": 389,
      "po": 390,
      "tr": 391,
      "were": 392,
      "ex": 393,
      "art": 394,
      "em": 395,
      "igh": 396,
      "est": 397,
      "si": 398,
      "so": 399,
      "ong": 400,
      "ld": 401,
      "pe": 402,
      "ich": 403,
      "ill": 404,
      "ew": 405,
      "ies": 406,
      "ast": 407,
      "ak": 408,
      "lo": 409,
      "ber": 410,
      "gh": 411,
      "ish": 412,
      "ard": 413,
      "ated": 414,
      "ity": 415,
      "ort": 416,
      "ame": 417,
      "per": 418,
      "co": 419,
      "ment": 420,
      "had": 421,
      "ant": 422,
      "out": 423,
      "od": 424,
      "man": 425,
      "str": 426,
      "qu": 427,
      "ack": 428,
      "one": 429,
      "tw": 430,
      "vi": 431,
      "end": 432,
      "which": 433,
      "our": 434,
      "ess": 435,
      "ist": 436,
      "af": 437,
      "not": 438,
      "ge": 439,
      "ord": 440,
      "up": 441,
      "fe": 442,
      "ave": 443,
      "but": 444,
      "rit": 445,
      "av": 446,
      "ive": 447,
      "fo": 448,
      "its": 449,
      "ine": 450,
      "act": 451,
      "ally": 452,
      "ight": 453,
      "ci": 454,
      "Ch": 455,
      "ary": 456,
      "fir": 457,
      "200": 458,
      "own": 459,
      "ip": 460,
      "ud": 461,
      "ved": 462,
      "du": 463,
      "20": 464,
      "over": 465,
      "ian": 466,
      "bo": 467,
      "port": 468,
      "her": 469,
      "their": 470,
      "pr": 471,
      "St": 472,
      "land": 473,
      "ne": 474,
      "ould": 475,
      "ep": 476,
      "first": 477,
      "ach": 478,
      "fic": 479,
      "ous": 480,
      "ical": 481,
      "ass": 482,
      "age": 483,
      "att": 484,
      "also": 485,
      "low": 486,
      "unt": 487,
      "ition": 488,
      "other": 489,
      "ction": 490,
      "wor": 491,
      "tim": 492,
      "ser": 493,
      "ign": 494,
      "form": 495,
      "has": 496,
      "aw": 497,
      "au": 498,
      "ater": 499,
      "pt": 500,
      "ure": 501,
      "ev": 502,
      "comp": 503,
      "have": 504,
      "ll": 505,
      "He": 506,
      "ub": 507,
      "int": 508,
      "ke": 509,
      "18": 510,
      "play": 511,
      "who": 512,
      "been": 513,
      "pos": 514,
      "ia": 515,
      "two": 516,
      "ome": 517,
      ".@": 518,
      "@.@": 519,
      "part": 520,
      "ree": 521,
      "iv": 522,
      "uring": 523,
      "cont": 524,
      "cre": 525,
      "ence": 526,
      "gr": 527,
      "no": 528,
      "sp": 529,
      "gu": 530,
      "ough": 531,
      "this": 532,
      "pres": 533,
      "des": 534,
      "cent": 535,
      "ran": 536,
      "It": 537,
      "ile": 538,
      "ok": 539,
      "they": 540,
      "after": 541,
      "201": 542,
      "comm": 543,
      "ren": 544,
      "rou": 545,
      "me": 546,
      "ade": 547,
      "year": 548,
      "ck": 549,
      "ory": 550,
      ",@": 551,
      "@,@": 552,
      "we": 553,
      "ans": 554,
      "Th": 555,
      "ult": 556,
      "fin": 557,
      "dis": 558,
      "fi": 559,
      "incl": 560,
      "fer": 561,
      "pre": 562,
      "ite": 563,
      "cord": 564,
      "An": 565,
      "ace": 566,
      "mer": 567,
      "urn": 568,
      "ever": 569,
      "ell": 570,
      "work": 571,
      "sion": 572,
      "ue": 573,
      "into": 574,
      "ations": 575,
      "time": 576,
      "ces": 577,
      "Ro": 578,
      "ial": 579,
      "ship": 580,
      "Un": 581,
      "rough": 582,
      "sc": 583,
      "br": 584,
      "tem": 585,
      "Au": 586,
      "ced": 587,
      "more": 588,
      "ark": 589,
      "ance": 590,
      "able": 591,
      "most": 592,
      "any": 593,
      "vel": 594,
      "would": 595,
      "amp": 596,
      "air": 597,
      "gro": 598,
      "spe": 599,
      "him": 600,
      "ail": 601,
      "main": 602,
      "used": 603,
      "ited": 604,
      "ice": 605,
      "cond": 606,
      "inter": 607,
      "old": 608,
      "ason": 609,
      "cted": 610,
      "includ": 611,
      "bec": 612,
      "cr": 613,
      "she": 614,
      "ased": 615,
      "fore": 616,
      "ican": 617,
      "mon": 618,
      "though": 619,
      "app": 620,
      "way": 621,
      "ict": 622,
      "ern": 623,
      "gan": 624,
      "fl": 625,
      "ind": 626,
      "ick": 627,
      "Al": 628,
      "ss": 629,
      "during": 630,
      "only": 631,
      "under": 632,
      "ph": 633,
      "ten": 634,
      "vis": 635,
      "when": 636,
      "ates": 637,
      "ings": 638,
      "iz": 639,
      "ase": 640,
      "ef": 641,
      "cc": 642,
      "ret": 643,
      "nor": 644,
      "ath": 645,
      "bu": 646,
      "ilm": 647,
      "ubl": 648,
      "ild": 649,
      "ward": 650,
      "red": 651,
      "new": 652,
      "outh": 653,
      "ake": 654,
      "them": 655,
      "song": 656,
      "ra": 657,
      "again": 658,
      "reg": 659,
      "ents": 660,
      "arch": 661,
      "ollow": 662,
      "col": 663,
      "go": 664,
      "min": 665,
      "ions": 666,
      "day": 667,
      "do": 668,
      "een": 669,
      "On": 670,
      "199": 671,
      "als": 672,
      "about": 673,
      "three": 674,
      "while": 675,
      "Ar": 676,
      "game": 677,
      "some": 678,
      "lar": 679,
      "les": 680,
      "stru": 681,
      "ble": 682,
      "than": 683,
      "gen": 684,
      "season": 685,
      "os": 686,
      "ang": 687,
      "Com": 688,
      "ational": 689,
      "where": 690,
      "num": 691,
      "through": 692,
      "led": 693,
      "son": 694,
      "film": 695,
      "betw": 696,
      "between": 697,
      "Amer": 698,
      "dr": 699,
      "ted": 700,
      "ors": 701,
      "ful": 702,
      "fr": 703,
      "set": 704,
      "can": 705,
      "kn": 706,
      "later": 707,
      "writ": 708,
      "ie": 709,
      "En": 710,
      "iver": 711,
      "produ": 712,
      "Re": 713,
      "char": 714,
      "sy": 715,
      "Wh": 716,
      "ob": 717,
      "New": 718,
      "sing": 719,
      "ered": 720,
      "record": 721,
      "Jo": 722,
      "og": 723,
      "made": 724,
      "ular": 725,
      "10": 726,
      "rele": 727,
      "ty": 728,
      "view": 729,
      "ry": 730,
      "ning": 731,
      "if": 732,
      "ames": 733,
      "mi": 734,
      "aid": 735,
      "000": 736,
      "follow": 737,
      "high": 738,
      "ished": 739,
      "ating": 740,
      "ts": 741,
      "off": 742,
      "then": 743,
      "my": 744,
      "ven": 745,
      "four": 746,
      "ele": 747,
      "sub": 748,
      "rel": 749,
      "call": 750,
      "ire": 751,
      "ury": 752,
      "As": 753,
      "ics": 754,
      "second": 755,
      "ust": 756,
      "med": 757,
      "rop": 758,
      "ose": 759,
      "sel": 760,
      "cap": 761,
      "sur": 762,
      "row": 763,
      "before": 764,
      "bum": 765,
      "No": 766,
      "sup": 767,
      "ton": 768,
      "well": 769,
      "such": 770,
      "This": 771,
      "loc": 772,
      "publ": 773,
      "Co": 774,
      "back": 775,
      "ters": 776,
      "being": 777,
      "there": 778,
      "At": 779,
      "arri": 780,
      "many": 781,
      "Brit": 782,
      "Le": 783,
      "..": 784,
      "Nor": 785,
      "ual": 786,
      "urch": 787,
      "ma": 788,
      "ese": 789,
      "side": 790,
      "number": 791,
      "ann": 792,
      "cri": 793,
      "ily": 794,
      "owever": 795,
      "mber": 796,
      "years": 797,
      "16": 798,
      "12": 799,
      "ari": 800,
      "album": 801,
      "appear": 802,
      "je": 803,
      "sever": 804,
      "mus": 805,
      "against": 806,
      "ound": 807,
      "De": 808,
      "add": 809,
      "found": 810,
      "use": 811,
      "ince": 812,
      "velop": 813,
      "reat": 814,
      "Mo": 815,
      "like": 816,
      "early": 817,
      "long": 818,
      "ft": 819,
      "15": 820,
      "ative": 821,
      "uary": 822,
      "17": 823,
      "ause": 824,
      "both": 825,
      "igin": 826,
      "series": 827,
      "der": 828,
      "atch": 829,
      "including": 830,
      "hel": 831,
      "became": 832,
      "Eng": 833,
      "point": 834,
      "cho": 835,
      "down": 836,
      "team": 837,
      "Af": 838,
      "known": 839,
      "feat": 840,
      "dire": 841,
      "head": 842,
      "par": 843,
      "United": 844,
      "cover": 845,
      "line": 846,
      "oy": 847,
      "ho": 848,
      "pop": 849,
      "ities": 850,
      "198": 851,
      "ird": 852,
      "epis": 853,
      "ext": 854,
      "ond": 855,
      "ident": 856,
      "194": 857,
      "contin": 858,
      "rece": 859,
      "west": 860,
      "war": 861,
      "cons": 862,
      "30": 863,
      "mem": 864,
      "stral": 865,
      "eng": 866,
      "After": 867,
      "ments": 868,
      "several": 869,
      "develop": 870,
      "oper": 871,
      "ale": 872,
      "charac": 873,
      "offic": 874,
      "dif": 875,
      "trans": 876,
      "ek": 877,
      "origin": 878,
      "eld": 879,
      "tain": 880,
      "stor": 881,
      "ens": 882,
      "American": 883,
      "ron": 884,
      "hn": 885,
      "mill": 886,
      "Austral": 887,
      "try": 888,
      "II": 889,
      "ins": 890,
      "peri": 891,
      "road": 892,
      "descri": 893,
      "city": 894,
      "show": 895,
      "hist": 896,
      "began": 897,
      "ures": 898,
      "comple": 899,
      "cial": 900,
      "lead": 901,
      "pol": 902,
      "ore": 903,
      "lan": 904,
      "eral": 905,
      "British": 906,
      "along": 907,
      "ise": 908,
      "called": 909,
      "ode": 910,
      "ung": 911,
      "War": 912,
      "dec": 913,
      "serv": 914,
      "remain": 915,
      "bed": 916,
      "uch": 917,
      "sign": 918,
      "century": 919,
      "197": 920,
      "cer": 921,
      "did": 922,
      "196": 923,
      "sm": 924,
      "John": 925,
      "Be": 926,
      "une": 927,
      "Wor": 928,
      "lack": 929,
      "Br": 930,
      "ines": 931,
      "could": 932,
      "ball": 933,
      "mil": 934,
      "ific": 935,
      "ple": 936,
      "May": 937,
      "ised": 938,
      "ended": 939,
      "Ger": 940,
      "nam": 941,
      "Sh": 942,
      "ross": 943,
      "gust": 944,
      "ide": 945,
      "large": 946,
      "ually": 947,
      "run": 948,
      "position": 949,
      "ste": 950,
      "may": 951,
      "cur": 952,
      "olog": 953,
      "present": 954,
      "these": 955,
      "Con": 956,
      "sist": 957,
      "said": 958,
      "star": 959,
      "km": 960,
      "crit": 961,
      "self": 962,
      "episode": 963,
      "ople": 964,
      "attack": 965,
      "design": 966,
      "US": 967,
      "cept": 968,
      "dam": 969,
      "met": 970,
      "ped": 971,
      "For": 972,
      "pass": 973,
      "plac": 974,
      "vid": 975,
      "ject": 976,
      "She": 977,
      "cle": 978,
      "until": 979,
      "erson": 980,
      "aking": 981,
      "return": 982,
      "Mar": 983,
      "mis": 984,
      "cy": 985,
      "open": 986,
      "start": 987,
      "inv": 988,
      "state": 989,
      "overn": 990,
      "por": 991,
      "sive": 992,
      "Jan": 993,
      "tow": 994,
      "stem": 995,
      "thern": 996,
      "leg": 997,
      "area": 998,
      "Sep": 999,
      "succ": 1000,
      "jor": 1001,
      "August": 1002,
      "Se": 1003,
      "success": 1004,
      "Is": 1005,
      "now": 1006,
      "tri": 1007,
      "50": 1008,
      "ms": 1009,
      "14": 1010,
      "ves": 1011,
      "ith": 1012,
      "ood": 1013,
      "east": 1014,
      "spec": 1015,
      "tember": 1016,
      "September": 1017,
      "ived": 1018,
      "north": 1019,
      "ress": 1020,
      "Man": 1021,
      "released": 1022,
      "group": 1023,
      "ision": 1024,
      "music": 1025,
      "ank": 1026,
      "dep": 1027,
      "They": 1028,
      "continu": 1029,
      "ica": 1030,
      "fam": 1031,
      "formed": 1032,
      "cess": 1033,
      "az": 1034,
      "same": 1035,
      "around": 1036,
      "Bo": 1037,
      "because": 1038,
      "support": 1039,
      "gest": 1040,
      "million": 1041,
      "occ": 1042,
      "North": 1043,
      "car": 1044,
      "13": 1045,
      "ower": 1046,
      "Ju": 1047,
      "ca": 1048,
      "ving": 1049,
      "each": 1050,
      "val": 1051,
      "coun": 1052,
      "light": 1053,
      "Car": 1054,
      "six": 1055,
      "gun": 1056,
      "men": 1057,
      "national": 1058,
      "stri": 1059,
      "people": 1060,
      "batt": 1061,
      "vo": 1062,
      "vide": 1063,
      "come": 1064,
      "chool": 1065,
      "orn": 1066,
      "small": 1067,
      "sim": 1068,
      "ley": 1069,
      "World": 1070,
      "following": 1071,
      "ont": 1072,
      "fect": 1073,
      "read": 1074,
      "life": 1075,
      "gy": 1076,
      "ather": 1077,
      "However": 1078,
      "rist": 1079,
      "def": 1080,
      "ash": 1081,
      "consid": 1082,
      "io": 1083,
      "June": 1084,
      "bers": 1085,
      "Col": 1086,
      "ured": 1087,
      "ink": 1088,
      "ized": 1089,
      "result": 1090,
      "requ": 1091,
      "overnment": 1092,
      "itt": 1093,
      "near": 1094,
      "mark": 1095,
      "vision": 1096,
      "ropical": 1097,
      "rest": 1098,
      "ground": 1099,
      "hy": 1100,
      "la": 1101,
      "contro": 1102,
      "ib": 1103,
      "ivers": 1104,
      "five": 1105,
      "win": 1106,
      "report": 1107,
      "ctor": 1108,
      "grap": 1109,
      "ask": 1110,
      "get": 1111,
      "south": 1112,
      "list": 1113,
      "rote": 1114,
      "let": 1115,
      "Fe": 1116,
      "late": 1117,
      "11": 1118,
      "South": 1119,
      "took": 1120,
      "character": 1121,
      "field": 1122,
      "aim": 1123,
      "what": 1124,
      "less": 1125,
      "sol": 1126,
      "ouse": 1127,
      "reach": 1128,
      "very": 1129,
      "track": 1130,
      "played": 1131,
      "since": 1132,
      "pon": 1133,
      "sou": 1134,
      "prote": 1135,
      "cour": 1136,
      "atter": 1137,
      "top": 1138,
      "0s": 1139,
      "cording": 1140,
      "enn": 1141,
      "ilt": 1142,
      "States": 1143,
      "prom": 1144,
      "avy": 1145,
      "aving": 1146,
      "build": 1147,
      "week": 1148,
      "dom": 1149,
      "Eu": 1150,
      "cto": 1151,
      "name": 1152,
      "place": 1153,
      "kill": 1154,
      "will": 1155,
      "fied": 1156,
      "cut": 1157,
      "ined": 1158,
      "allow": 1159,
      "book": 1160,
      "ately": 1161,
      "Octo": 1162,
      "tal": 1163,
      "October": 1164,
      "aged": 1165,
      "major": 1166,
      "Lo": 1167,
      "ired": 1168,
      "last": 1169,
      "tit": 1170,
      "stand": 1171,
      "ague": 1172,
      "ied": 1173,
      "moved": 1174,
      "lish": 1175,
      "wards": 1176,
      "ained": 1177,
      "care": 1178,
      "ural": 1179,
      "ious": 1180,
      "appro": 1181,
      "public": 1182,
      "even": 1183,
      "received": 1184,
      "vari": 1185,
      "25": 1186,
      "ody": 1187,
      "final": 1188,
      "system": 1189,
      "count": 1190,
      "July": 1191,
      "ime": 1192,
      "ships": 1193,
      "organ": 1194,
      "soci": 1195,
      "partic": 1196,
      "mb": 1197,
      "won": 1198,
      "named": 1199,
      "town": 1200,
      "Fran": 1201,
      "just": 1202,
      "ork": 1203,
      "che": 1204,
      "sequ": 1205,
      "Ste": 1206,
      "band": 1207,
      "Wil": 1208,
      "ales": 1209,
      "vious": 1210,
      "built": 1211,
      "Gu": 1212,
      "constru": 1213,
      "German": 1214,
      "vent": 1215,
      "January": 1216,
      "Ac": 1217,
      "giv": 1218,
      "match": 1219,
      "cast": 1220,
      "incre": 1221,
      "Tr": 1222,
      "aft": 1223,
      "due": 1224,
      "included": 1225,
      "ains": 1226,
      "ages": 1227,
      "tempt": 1228,
      "described": 1229,
      "Can": 1230,
      "Christ": 1231,
      "During": 1232,
      "Pl": 1233,
      "ina": 1234,
      "ional": 1235,
      "species": 1236,
      "York": 1237,
      "round": 1238,
      "ude": 1239,
      "much": 1240,
      "oman": 1241,
      "world": 1242,
      "Apr": 1243,
      "single": 1244,
      "April": 1245,
      "King": 1246,
      "power": 1247,
      "government": 1248,
      "posed": 1249,
      "order": 1250,
      "gre": 1251,
      "child": 1252,
      "liam": 1253,
      "fur": 1254,
      "Cl": 1255,
      "Jap": 1256,
      "Japan": 1257,
      "Gr": 1258,
      "arm": 1259,
      "Her": 1260,
      "attempt": 1261,
      "person": 1262,
      "ris": 1263,
      "death": 1264,
      "ility": 1265,
      "vember": 1266,
      "ards": 1267,
      "command": 1268,
      "November": 1269,
      "lie": 1270,
      "another": 1271,
      "ery": 1272,
      "Me": 1273,
      "pri": 1274,
      "hal": 1275,
      "camp": 1276,
      "event": 1277,
      "wrote": 1278,
      "although": 1279,
      "ah": 1280,
      "ling": 1281,
      "left": 1282,
      "within": 1283,
      "ets": 1284,
      "gin": 1285,
      "differ": 1286,
      "rench": 1287,
      "urr": 1288,
      "turn": 1289,
      "ute": 1290,
      "based": 1291,
      "udi": 1292,
      "water": 1293,
      "dest": 1294,
      "...": 1295,
      "bre": 1296,
      "ants": 1297,
      "fall": 1298,
      "hand": 1299,
      "sed": 1300,
      "ats": 1301,
      "claim": 1302,
      "March": 1303,
      "roy": 1304,
      "sent": 1305,
      "short": 1306,
      "estab": 1307,
      "cember": 1308,
      "December": 1309,
      "third": 1310,
      "ature": 1311,
      "ement": 1312,
      "previous": 1313,
      "storm": 1314,
      "ored": 1315,
      "home": 1316,
      "ony": 1317,
      "ital": 1318,
      "195": 1319,
      "version": 1320,
      "Euro": 1321,
      "right": 1322,
      "All": 1323,
      "jo": 1324,
      "itary": 1325,
      "gener": 1326,
      "Batt": 1327,
      "dist": 1328,
      "Australian": 1329,
      "West": 1330,
      "National": 1331,
      "ists": 1332,
      "ston": 1333,
      "ivision": 1334,
      "school": 1335,
      "ting": 1336,
      "akes": 1337,
      "action": 1338,
      "Sp": 1339,
      "period": 1340,
      "games": 1341,
      "ense": 1342,
      "By": 1343,
      "issu": 1344,
      "There": 1345,
      "expl": 1346,
      "River": 1347,
      "pect": 1348,
      "review": 1349,
      "French": 1350,
      "Indi": 1351,
      "City": 1352,
      "ially": 1353,
      "using": 1354,
      "ulation": 1355,
      "chan": 1356,
      "idge": 1357,
      "forman": 1358,
      "193": 1359,
      "make": 1360,
      "those": 1361,
      "best": 1362,
      "ham": 1363,
      "ster": 1364,
      "Europe": 1365,
      "month": 1366,
      "family": 1367,
      "king": 1368,
      "thing": 1369,
      "When": 1370,
      "England": 1371,
      "ilar": 1372,
      "placed": 1373,
      "tro": 1374,
      "ys": 1375,
      "continued": 1376,
      "His": 1377,
      "ner": 1378,
      "stud": 1379,
      "original": 1380,
      "ls": 1381,
      "former": 1382,
      "ampion": 1383,
      "2010": 1384,
      "ral": 1385,
      "hum": 1386,
      "plan": 1387,
      "Par": 1388,
      "oung": 1389,
      "story": 1390,
      "role": 1391,
      "24": 1392,
      "force": 1393,
      "iversity": 1394,
      "fan": 1395,
      "next": 1396,
      "wind": 1397,
      "adv": 1398,
      "2008": 1399,
      "video": 1400,
      "came": 1401,
      "fac": 1402,
      "ler": 1403,
      "held": 1404,
      "half": 1405,
      "ently": 1406,
      "company": 1407,
      "Gen": 1408,
      "still": 1409,
      "itch": 1410,
      "move": 1411,
      "ref": 1412,
      "ism": 1413,
      "flu": 1414,
      "aken": 1415,
      "Ge": 1416,
      "colle": 1417,
      "Church": 1418,
      "performan": 1419,
      "few": 1420,
      "real": 1421,
      "26": 1422,
      "tropical": 1423,
      "class": 1424,
      "bro": 1425,
      "history": 1426,
      "ons": 1427,
      "possi": 1428,
      "ety": 1429,
      "2009": 1430,
      "Division": 1431,
      "addition": 1432,
      "ops": 1433,
      "gram": 1434,
      "local": 1435,
      "23": 1436,
      "So": 1437,
      "cor": 1438,
      "forces": 1439,
      "Sc": 1440,
      "ences": 1441,
      "And": 1442,
      "We": 1443,
      "ically": 1444,
      "fact": 1445,
      "urrican": 1446,
      "cus": 1447,
      "mid": 1448,
      "auth": 1449,
      "sug": 1450,
      "rown": 1451,
      "Pr": 1452,
      "100": 1453,
      "site": 1454,
      "Ad": 1455,
      "often": 1456,
      "lim": 1457,
      "ru": 1458,
      "put": 1459,
      "21": 1460,
      "say": 1461,
      "fort": 1462,
      "mission": 1463,
      "ae": 1464,
      "stit": 1465,
      "trad": 1466,
      "further": 1467,
      "mar": 1468,
      "ush": 1469,
      "riend": 1470,
      "considered": 1471,
      "career": 1472,
      "strong": 1473,
      "effect": 1474,
      "player": 1475,
      "fire": 1476,
      "ged": 1477,
      "mp": 1478,
      "draw": 1479,
      "aining": 1480,
      "ric": 1481,
      "init": 1482,
      "iment": 1483,
      "2007": 1484,
      "State": 1485,
      "28": 1486,
      "Li": 1487,
      "ending": 1488,
      "quar": 1489,
      "refer": 1490,
      "production": 1491,
      "Ma": 1492,
      "elt": 1493,
      "One": 1494,
      "military": 1495,
      "rodu": 1496,
      "commun": 1497,
      "mand": 1498,
      "similar": 1499,
      "With": 1500,
      "ium": 1501,
      "members": 1502,
      "take": 1503,
      "suggest": 1504,
      "import": 1505,
      "club": 1506,
      "ution": 1507,
      "days": 1508,
      "27": 1509,
      "Mc": 1510,
      "without": 1511,
      "struct": 1512,
      "Ear": 1513,
      "ali": 1514,
      "alion": 1515,
      "urricane": 1516,
      "mag": 1517,
      "ness": 1518,
      "body": 1519,
      "night": 1520,
      "2011": 1521,
      "respon": 1522,
      "chang": 1523,
      "scen": 1524,
      "polit": 1525,
      "different": 1526,
      "ix": 1527,
      "church": 1528,
      "bar": 1529,
      "pite": 1530,
      "tract": 1531,
      "Pe": 1532,
      "Inter": 1533,
      "craft": 1534,
      "ze": 1535,
      "among": 1536,
      "published": 1537,
      "level": 1538,
      "recorded": 1539,
      "you": 1540,
      "Ph": 1541,
      "flo": 1542,
      "vil": 1543,
      "Sci": 1544,
      "mm": 1545,
      "que": 1546,
      "every": 1547,
      "22": 1548,
      "ared": 1549,
      "imes": 1550,
      "den": 1551,
      "however": 1552,
      "bruary": 1553,
      "Although": 1554,
      "February": 1555,
      "itar": 1556,
      "pen": 1557,
      "2012": 1558,
      "written": 1559,
      "invol": 1560,
      "2006": 1561,
      "wide": 1562,
      "lost": 1563,
      "served": 1564,
      "seven": 1565,
      "sty": 1566,
      "capt": 1567,
      "English": 1568,
      "Or": 1569,
      "studi": 1570,
      "bert": 1571,
      "went": 1572,
      "According": 1573,
      "covered": 1574,
      "stead": 1575,
      "successful": 1576,
      "find": 1577,
      "house": 1578,
      "Char": 1579,
      "ico": 1580,
      "ians": 1581,
      "ai": 1582,
      "29": 1583,
      "direct": 1584,
      "enter": 1585,
      "test": 1586,
      "release": 1587,
      "Ser": 1588,
      "total": 1589,
      "augh": 1590,
      "histor": 1591,
      "face": 1592,
      "mod": 1593,
      "ided": 1594,
      "Australia": 1595,
      "songs": 1596,
      "ittle": 1597,
      "lor": 1598,
      "ctions": 1599,
      "title": 1600,
      "become": 1601,
      "Count": 1602,
      "particular": 1603,
      "Po": 1604,
      "bas": 1605,
      "wood": 1606,
      "ploy": 1607,
      "produced": 1608,
      "Comp": 1609,
      "reported": 1610,
      "hold": 1611,
      "decl": 1612,
      "divid": 1613,
      "sit": 1614,
      "provid": 1615,
      "white": 1616,
      "post": 1617,
      "Canad": 1618,
      "having": 1619,
      "foot": 1620,
      "gave": 1621,
      "river": 1622,
      "mix": 1623,
      "Mis": 1624,
      "aur": 1625,
      "times": 1626,
      "General": 1627,
      "gn": 1628,
      "vol": 1629,
      "League": 1630,
      "Park": 1631,
      "ger": 1632,
      "ps": 1633,
      "comb": 1634,
      "Mich": 1635,
      "friend": 1636,
      "how": 1637,
      "Te": 1638,
      "tele": 1639,
      "University": 1640,
      "author": 1641,
      "vict": 1642,
      "popular": 1643,
      "iter": 1644,
      "quad": 1645,
      "Air": 1646,
      "Dy": 1647,
      "signific": 1648,
      "ination": 1649,
      "close": 1650,
      "ney": 1651,
      "given": 1652,
      "Port": 1653,
      "ailed": 1654,
      "East": 1655,
      "stated": 1656,
      "Per": 1657,
      "ched": 1658,
      "Mus": 1659,
      "tour": 1660,
      "Geor": 1661,
      "Ang": 1662,
      "clear": 1663,
      "These": 1664,
      "seen": 1665,
      "never": 1666,
      "Afr": 1667,
      "making": 1668,
      "graph": 1669,
      "influ": 1670,
      "ument": 1671,
      "ption": 1672,
      "Des": 1673,
      "see": 1674,
      "iron": 1675,
      "represent": 1676,
      "prof": 1677,
      "anno": 1678,
      "sure": 1679,
      "country": 1680,
      "destroy": 1681,
      "change": 1682,
      "beh": 1683,
      "Bar": 1684,
      "want": 1685,
      "Roman": 1686,
      "cing": 1687,
      "stre": 1688,
      "include": 1689,
      "developed": 1690,
      "construction": 1691,
      "Phil": 1692,
      "Rich": 1693,
      "ned": 1694,
      "young": 1695,
      "front": 1696,
      "returned": 1697,
      "great": 1698,
      "hour": 1699,
      "away": 1700,
      "bl": 1701,
      "40": 1702,
      "Ed": 1703,
      "2013": 1704,
      "reached": 1705,
      "indu": 1706,
      "too": 1707,
      "cal": 1708,
      "across": 1709,
      "tell": 1710,
      "omet": 1711,
      "Road": 1712,
      "theast": 1713,
      "ator": 1714,
      "island": 1715,
      "ices": 1716,
      "search": 1717,
      "look": 1718,
      "critic": 1719,
      "To": 1720,
      "compet": 1721,
      "ither": 1722,
      "ology": 1723,
      "equ": 1724,
      "ways": 1725,
      "control": 1726,
      "xim": 1727,
      "While": 1728,
      "population": 1729,
      "Japanese": 1730,
      "istr": 1731,
      "range": 1732,
      "America": 1733,
      "William": 1734,
      "cas": 1735,
      "rad": 1736,
      "ides": 1737,
      "aren": 1738,
      "building": 1739,
      "Min": 1740,
      "blo": 1741,
      "agre": 1742,
      "law": 1743,
      "rent": 1744,
      "miles": 1745,
      "ars": 1746,
      "els": 1747,
      "ably": 1748,
      "program": 1749,
      "Tw": 1750,
      "consist": 1751,
      "children": 1752,
      "chn": 1753,
      "reek": 1754,
      "depend": 1755,
      "cult": 1756,
      "project": 1757,
      "died": 1758,
      "announ": 1759,
      "ges": 1760,
      "Song": 1761,
      "Vi": 1762,
      "ford": 1763,
      "common": 1764,
      "significant": 1765,
      "ones": 1766,
      "should": 1767,
      "works": 1768,
      "hip": 1769,
      "coming": 1770,
      "Reg": 1771,
      "fantry": 1772,
      "ey": 1773,
      "lished": 1774,
      "Scot": 1775,
      "Pol": 1776,
      "itive": 1777,
      "nd": 1778,
      "190": 1779,
      "suf": 1780,
      "located": 1781,
      "father": 1782,
      "aff": 1783,
      "bird": 1784,
      "Har": 1785,
      "teen": 1786,
      "aster": 1787,
      "killed": 1788,
      "Jack": 1789,
      "ax": 1790,
      "earli": 1791,
      "writing": 1792,
      "bur": 1793,
      "guns": 1794,
      "established": 1795,
      "High": 1796,
      "Old": 1797,
      "word": 1798,
      "himself": 1799,
      "County": 1800,
      "manag": 1801,
      "ondon": 1802,
      "aign": 1803,
      "cross": 1804,
      "London": 1805,
      "gl": 1806,
      "tolo": 1807,
      "development": 1808,
      "fle": 1809,
      "omen": 1810,
      "fight": 1811,
      "felt": 1812,
      "thought": 1813,
      "belie": 1814,
      "performance": 1815,
      "Of": 1816,
      "atic": 1817,
      "igade": 1818,
      "mount": 1819,
      "introdu": 1820,
      "full": 1821,
      "complete": 1822,
      "Sim": 1823,
      "Mount": 1824,
      "throughout": 1825,
      "bor": 1826,
      "eight": 1827,
      "areas": 1828,
      "sound": 1829,
      "Pro": 1830,
      "itions": 1831,
      "BC": 1832,
      "bus": 1833,
      "board": 1834,
      "aver": 1835,
      "modern": 1836,
      "net": 1837,
      "pur": 1838,
      "ified": 1839,
      "Roy": 1840,
      "official": 1841,
      "battle": 1842,
      "pain": 1843,
      "alth": 1844,
      "ior": 1845,
      "pression": 1846,
      "good": 1847,
      "noted": 1848,
      "important": 1849,
      "Dylan": 1850,
      "aul": 1851,
      "ades": 1852,
      "appeared": 1853,
      "acy": 1854,
      "eder": 1855,
      "Dav": 1856,
      "aves": 1857,
      "Ho": 1858,
      "lay": 1859,
      "ances": 1860,
      "medi": 1861,
      "chart": 1862,
      "antic": 1863,
      "key": 1864,
      "Army": 1865,
      "started": 1866,
      "na": 1867,
      "sum": 1868,
      "performed": 1869,
      "arried": 1870,
      "amb": 1871,
      "style": 1872,
      "human": 1873,
      "activ": 1874,
      "various": 1875,
      "prim": 1876,
      "occur": 1877,
      "Company": 1878,
      "Ire": 1879,
      "remained": 1880,
      "itted": 1881,
      "feet": 1882,
      "need": 1883,
      "television": 1884,
      "sk": 1885,
      "entolo": 1886,
      "grow": 1887,
      "survi": 1888,
      "caused": 1889,
      "Scientolo": 1890,
      "cou": 1891,
      "tar": 1892,
      "poem": 1893,
      "Ireland": 1894,
      "live": 1895,
      "pra": 1896,
      "sett": 1897,
      "troops": 1898,
      "60": 1899,
      "rul": 1900,
      "James": 1901,
      "room": 1902,
      "heavy": 1903,
      "ots": 1904,
      "others": 1905,
      "interest": 1906,
      "experi": 1907,
      "Champion": 1908,
      "black": 1909,
      "fem": 1910,
      "2005": 1911,
      "fav": 1912,
      "appoint": 1913,
      "players": 1914,
      "ama": 1915,
      "fig": 1916,
      "iness": 1917,
      "Black": 1918,
      "peak": 1919,
      "ensive": 1920,
      "techn": 1921,
      "does": 1922,
      "typ": 1923,
      "events": 1924,
      "created": 1925,
      "scri": 1926,
      "novel": 1927,
      "fered": 1928,
      "Island": 1929,
      "taken": 1930,
      "rew": 1931,
      "ait": 1932,
      "ison": 1933,
      "coast": 1934,
      "quadron": 1935,
      "trave": 1936,
      "buted": 1937,
      "Hist": 1938,
      "gether": 1939,
      "cru": 1940,
      "cil": 1941,
      "ape": 1942,
      "ives": 1943,
      "grad": 1944,
      "begin": 1945,
      "region": 1946,
      "Cor": 1947,
      "gar": 1948,
      "omin": 1949,
      "campaign": 1950,
      "political": 1951,
      "mor": 1952,
      "pitch": 1953,
      "vill": 1954,
      "relig": 1955,
      "stant": 1956,
      "abo": 1957,
      "Stre": 1958,
      "ks": 1959,
      "once": 1960,
      "idence": 1961,
      "formation": 1962,
      "189": 1963,
      "You": 1964,
      "rain": 1965,
      "followed": 1966,
      "completed": 1967,
      "Battalion": 1968,
      "Care": 1969,
      "rock": 1970,
      "ample": 1971,
      "exp": 1972,
      "Ber": 1973,
      "Sy": 1974,
      "Wal": 1975,
      "born": 1976,
      "fun": 1977,
      "saw": 1978,
      "pair": 1979,
      "loss": 1980,
      "core": 1981,
      "route": 1982,
      "Atl": 1983,
      "member": 1984,
      "god": 1985,
      "vest": 1986,
      "added": 1987,
      "announced": 1988,
      "tion": 1989,
      "ago": 1990,
      "estim": 1991,
      "2004": 1992,
      "possible": 1993,
      "enced": 1994,
      "stat": 1995,
      "lines": 1996,
      "mun": 1997,
      "least": 1998,
      "ficult": 1999,
      "meet": 2000,
      "relation": 2001,
      "difficult": 2002,
      "far": 2003,
      "Ex": 2004,
      "base": 2005,
      "stage": 2006,
      "originally": 2007,
      "nal": 2008,
      "omb": 2009,
      "abor": 2010,
      "ought": 2011,
      "ked": 2012,
      "van": 2013,
      "bet": 2014,
      "characters": 2015,
      "ope": 2016,
      "Rou": 2017,
      "rought": 2018,
      "months": 2019,
      "Some": 2020,
      "entire": 2021,
      "mother": 2022,
      "TV": 2023,
      "bes": 2024,
      "asing": 2025,
      "sex": 2026,
      "ological": 2027,
      "San": 2028,
      "2nd": 2029,
      "RA": 2030,
      "mph": 2031,
      "little": 2032,
      "comment": 2033,
      "southern": 2034,
      "Other": 2035,
      "associ": 2036,
      "process": 2037,
      "cir": 2038,
      "sl": 2039,
      "Su": 2040,
      "instead": 2041,
      "damage": 2042,
      "anim": 2043,
      "ively": 2044,
      "ael": 2045,
      "ues": 2046,
      "exist": 2047,
      "cient": 2048,
      "2015": 2049,
      "aircraft": 2050,
      "broad": 2051,
      "special": 2052,
      "Kingdom": 2053,
      "conne": 2054,
      "features": 2055,
      "Du": 2056,
      "names": 2057,
      "resident": 2058,
      "2003": 2059,
      "decided": 2060,
      "tradition": 2061,
      "Royal": 2062,
      "dri": 2063,
      "ising": 2064,
      "defe": 2065,
      "odes": 2066,
      "pred": 2067,
      "help": 2068,
      "behind": 2069,
      "cogn": 2070,
      "era": 2071,
      "host": 2072,
      "Pal": 2073,
      "Town": 2074,
      "either": 2075,
      "arded": 2076,
      "eastern": 2077,
      "cell": 2078,
      "utes": 2079,
      "know": 2080,
      "da": 2081,
      "tex": 2082,
      "crew": 2083,
      "redu": 2084,
      "cert": 2085,
      "Two": 2086,
      "avi": 2087,
      "case": 2088,
      "ories": 2089,
      "service": 2090,
      "ring": 2091,
      "stone": 2092,
      "section": 2093,
      "ull": 2094,
      "188": 2095,
      "highway": 2096,
      "current": 2097,
      "wall": 2098,
      "forced": 2099,
      "tempor": 2100,
      "ization": 2101,
      "critics": 2102,
      "But": 2103,
      "sess": 2104,
      "lect": 2105,
      "termin": 2106,
      "Music": 2107,
      "ability": 2108,
      "nia": 2109,
      "goal": 2110,
      "operations": 2111,
      "Scientology": 2112,
      "Route": 2113,
      "got": 2114,
      "sport": 2115,
      "Bl": 2116,
      "Mon": 2117,
      "towards": 2118,
      "vert": 2119,
      "wife": 2120,
      "playing": 2121,
      "burn": 2122,
      "together": 2123,
      "fourth": 2124,
      "France": 2125,
      "Mex": 2126,
      "oot": 2127,
      "stry": 2128,
      "regular": 2129,
      "31": 2130,
      "compan": 2131,
      "spir": 2132,
      "Street": 2133,
      "cause": 2134,
      "nu": 2135,
      "vic": 2136,
      "recogn": 2137,
      "eventually": 2138,
      "Mag": 2139,
      "approach": 2140,
      "David": 2141,
      "hor": 2142,
      "non": 2143,
      "tre": 2144,
      "lled": 2145,
      "break": 2146,
      "finished": 2147,
      "scored": 2148,
      "opened": 2149,
      "court": 2150,
      "Ham": 2151,
      "hurricane": 2152,
      "semb": 2153,
      "igned": 2154,
      "fif": 2155,
      "Ne": 2156,
      "almost": 2157,
      "accept": 2158,
      "proble": 2159,
      "forms": 2160,
      "rap": 2161,
      "separ": 2162,
      "subsequ": 2163,
      "claimed": 2164,
      "yards": 2165,
      "employ": 2166,
      "pho": 2167,
      "Bill": 2168,
      "Wales": 2169,
      "ality": 2170,
      "Day": 2171,
      "pat": 2172,
      "units": 2173,
      "individ": 2174,
      "audi": 2175,
      "central": 2176,
      "inch": 2177,
      "featured": 2178,
      "stars": 2179,
      "azine": 2180,
      "yard": 2181,
      "uses": 2182,
      "northern": 2183,
      "appearance": 2184,
      "laun": 2185,
      "ened": 2186,
      "impro": 2187,
      "ples": 2188,
      "clo": 2189,
      "Robert": 2190,
      "directed": 2191,
      "ready": 2192,
      "Follow": 2193,
      "Mont": 2194,
      "upon": 2195,
      "points": 2196,
      "leading": 2197,
      "profess": 2198,
      "Mer": 2199,
      "NY": 2200,
      "ug": 2201,
      "assist": 2202,
      "commer": 2203,
      "ique": 2204,
      "example": 2205,
      "western": 2206,
      "Cup": 2207,
      "Fir": 2208,
      "Rep": 2209,
      "Som": 2210,
      "pie": 2211,
      "sold": 2212,
      "ament": 2213,
      "joined": 2214,
      "Indian": 2215,
      "women": 2216,
      "believed": 2217,
      "Carey": 2218,
      "Following": 2219,
      "35": 2220,
      "brought": 2221,
      "ible": 2222,
      "ceed": 2223,
      "lower": 2224,
      "Ital": 2225,
      "speci": 2226,
      "hib": 2227,
      "Feder": 2228,
      "concl": 2229,
      "respect": 2230,
      "aper": 2231,
      "dle": 2232,
      "mot": 2233,
      "shot": 2234,
      "strict": 2235,
      "winds": 2236,
      "International": 2237,
      "El": 2238,
      "ply": 2239,
      "icated": 2240,
      "emy": 2241,
      "70": 2242,
      "Hill": 2243,
      "ier": 2244,
      "uck": 2245,
      "largest": 2246,
      "ublic": 2247,
      "general": 2248,
      "study": 2249,
      "aut": 2250,
      "dou": 2251,
      "allowed": 2252,
      "provided": 2253,
      "Mad": 2254,
      "ault": 2255,
      "aval": 2256,
      "press": 2257,
      "rather": 2258,
      "Brigade": 2259,
      "weeks": 2260,
      "don": 2261,
      "hab": 2262,
      "term": 2263,
      "oted": 2264,
      "elect": 2265,
      "Paul": 2266,
      "sour": 2267,
      "ends": 2268,
      "langu": 2269,
      "counter": 2270,
      "Grand": 2271,
      "George": 2272,
      "cop": 2273,
      "nine": 2274,
      "stren": 2275,
      "opening": 2276,
      "500": 2277,
      "nat": 2278,
      "bel": 2279,
      "ception": 2280,
      "Jew": 2281,
      "ties": 2282,
      "Thom": 2283,
      "writer": 2284,
      "useum": 2285,
      "From": 2286,
      "Ze": 2287,
      "aland": 2288,
      "working": 2289,
      "elements": 2290,
      "director": 2291,
      "hon": 2292,
      "amo": 2293,
      "ota": 2294,
      "Mi": 2295,
      "mater": 2296,
      "ox": 2297,
      "mean": 2298,
      "streng": 2299,
      "Cent": 2300,
      "Dr": 2301,
      "reve": 2302,
      "ington": 2303,
      "condu": 2304,
      "contract": 2305,
      "designed": 2306,
      "cycl": 2307,
      "involved": 2308,
      "earlier": 2309,
      "First": 2310,
      "God": 2311,
      "illa": 2312,
      "worked": 2313,
      "generally": 2314,
      "flood": 2315,
      "hours": 2316,
      "mas": 2317,
      "sw": 2318,
      "sis": 2319,
      "iting": 2320,
      "civil": 2321,
      "meas": 2322,
      "European": 2323,
      "det": 2324,
      "outside": 2325,
      "Chin": 2326,
      "cret": 2327,
      "Navy": 2328,
      "cost": 2329,
      "saying": 2330,
      "inc": 2331,
      "inj": 2332,
      "invest": 2333,
      "asion": 2334,
      "hest": 2335,
      "ister": 2336,
      "Command": 2337,
      "38": 2338,
      "hous": 2339,
      "replaced": 2340,
      "deli": 2341,
      "engine": 2342,
      "wanted": 2343,
      "Viet": 2344,
      "Fin": 2345,
      "Game": 2346,
      "scre": 2347,
      "sia": 2348,
      "Love": 2349,
      "tor": 2350,
      "urb": 2351,
      "compl": 2352,
      "lear": 2353,
      "conom": 2354,
      "victory": 2355,
      "Best": 2356,
      "Dep": 2357,
      "Part": 2358,
      "sea": 2359,
      "Hen": 2360,
      "Mor": 2361,
      "leng": 2362,
      "atin": 2363,
      "ators": 2364,
      "soon": 2365,
      "ordered": 2366,
      "previously": 2367,
      "tee": 2368,
      "anti": 2369,
      "avail": 2370,
      "bodi": 2371,
      "parts": 2372,
      "graphy": 2373,
      "particularly": 2374,
      "estimated": 2375,
      "Act": 2376,
      "quick": 2377,
      "cially": 2378,
      "2014": 2379,
      "responsi": 2380,
      "ential": 2381,
      "vers": 2382,
      "metres": 2383,
      "Rus": 2384,
      "free": 2385,
      "ping": 2386,
      "heel": 2387,
      "soldi": 2388,
      "fund": 2389,
      "2001": 2390,
      "pract": 2391,
      "business": 2392,
      "fre": 2393,
      "prob": 2394,
      "Christian": 2395,
      "Play": 2396,
      "Cr": 2397,
      "House": 2398,
      "nar": 2399,
      "above": 2400,
      "Chinese": 2401,
      "uation": 2402,
      "reli": 2403,
      "seem": 2404,
      "19th": 2405,
      "sip": 2406,
      "scene": 2407,
      "Despite": 2408,
      "Flor": 2409,
      "har": 2410,
      "reason": 2411,
      "coll": 2412,
      "White": 2413,
      "transport": 2414,
      "structure": 2415,
      "length": 2416,
      "Ab": 2417,
      "Ke": 2418,
      "Angel": 2419,
      "praised": 2420,
      "Kore": 2421,
      "Oli": 2422,
      "Val": 2423,
      "ention": 2424,
      "ida": 2425,
      "mode": 2426,
      "anned": 2427,
      "birds": 2428,
      "Don": 2429,
      "SA": 2430,
      "uc": 2431,
      "ishing": 2432,
      "liament": 2433,
      "ecut": 2434,
      "fly": 2435,
      "ald": 2436,
      "ission": 2437,
      "via": 2438,
      "Championship": 2439,
      "script": 2440,
      "45": 2441,
      "hit": 2442,
      "mach": 2443,
      "race": 2444,
      "think": 2445,
      "ellow": 2446,
      "III": 2447,
      "Zealand": 2448,
      "Mark": 2449,
      "drop": 2450,
      "threat": 2451,
      "Star": 2452,
      "maintain": 2453,
      "transfer": 2454,
      "certain": 2455,
      "passed": 2456,
      "increased": 2457,
      "issue": 2458,
      "ino": 2459,
      "poet": 2460,
      "Rock": 2461,
      "Britain": 2462,
      "standing": 2463,
      "block": 2464,
      "defeated": 2465,
      "Med": 2466,
      "depict": 2467,
      "appointed": 2468,
      "phas": 2469,
      "inst": 2470,
      "research": 2471,
      "depression": 2472,
      "Pac": 2473,
      "186": 2474,
      "turned": 2475,
      "ranch": 2476,
      "condom": 2477,
      "Michael": 2478,
      "Mexico": 2479,
      "Am": 2480,
      "Creek": 2481,
      "nel": 2482,
      "station": 2483,
      "deal": 2484,
      "evidence": 2485,
      "Battle": 2486,
      "Atlantic": 2487,
      "Gre": 2488,
      "hom": 2489,
      "stop": 2490,
      "acc": 2491,
      "Later": 2492,
      "ighest": 2493,
      "pressed": 2494,
      "center": 2495,
      "flight": 2496,
      "remains": 2497,
      "portr": 2498,
      "manager": 2499,
      "date": 2500,
      "taking": 2501,
      "argu": 2502,
      "type": 2503,
      "quarter": 2504,
      "football": 2505,
      "whom": 2506,
      "clos": 2507,
      "poor": 2508,
      "185": 2509,
      "positive": 2510,
      "going": 2511,
      "occup": 2512,
      "available": 2513,
      "bound": 2514,
      "contri": 2515,
      "1st": 2516,
      "Oper": 2517,
      "cern": 2518,
      "gg": 2519,
      "vice": 2520,
      "coach": 2521,
      "viol": 2522,
      "signed": 2523,
      "Early": 2524,
      "amount": 2525,
      "Do": 2526,
      "Mary": 2527,
      "highest": 2528,
      "ief": 2529,
      "love": 2530,
      "Federer": 2531,
      "Pacific": 2532,
      "Ev": 2533,
      "Str": 2534,
      "ield": 2535,
      "nes": 2536,
      "army": 2537,
      "Florida": 2538,
      "Cap": 2539,
      "Sw": 2540,
      "past": 2541,
      "stay": 2542,
      "account": 2543,
      "aint": 2544,
      "Coun": 2545,
      "likely": 2546,
      "material": 2547,
      "Ir": 2548,
      "tel": 2549,
      "2002": 2550,
      "positions": 2551,
      "Hero": 2552,
      "establish": 2553,
      "Bay": 2554,
      "My": 2555,
      "cts": 2556,
      "comes": 2557,
      "average": 2558,
      "female": 2559,
      "uel": 2560,
      "ara": 2561,
      "lands": 2562,
      "arrived": 2563,
      "Richard": 2564,
      "75": 2565,
      "erous": 2566,
      "discus": 2567,
      "prepar": 2568,
      "lin": 2569,
      "native": 2570,
      "thod": 2571,
      "itself": 2572,
      "territ": 2573,
      "Infantry": 2574,
      "quest": 2575,
      "ival": 2576,
      "temporary": 2577,
      "School": 2578,
      "pi": 2579,
      "interview": 2580,
      "flict": 2581,
      "Most": 2582,
      "damaged": 2583,
      "rid": 2584,
      "sele": 2585,
      "pool": 2586,
      "ordan": 2587,
      "surround": 2588,
      "Thomas": 2589,
      "90": 2590,
      "vin": 2591,
      "alter": 2592,
      "voc": 2593,
      "studio": 2594,
      "80": 2595,
      "rail": 2596,
      "immedi": 2597,
      "ids": 2598,
      "consider": 2599,
      "asked": 2600,
      "particip": 2601,
      "initially": 2602,
      "community": 2603,
      "circ": 2604,
      "specific": 2605,
      "Hall": 2606,
      "Jordan": 2607,
      "Red": 2608,
      "err": 2609,
      "recent": 2610,
      "training": 2611,
      "limited": 2612,
      "Regiment": 2613,
      "told": 2614,
      "bell": 2615,
      "despite": 2616,
      "pond": 2617,
      "slow": 2618,
      "anish": 2619,
      "beli": 2620,
      "actions": 2621,
      "Pri": 2622,
      "President": 2623,
      "ff": 2624,
      "somet": 2625,
      "orial": 2626,
      "2000": 2627,
      "rang": 2628,
      "Union": 2629,
      "ximately": 2630,
      "Award": 2631,
      "bill": 2632,
      "touch": 2633,
      "usually": 2634,
      "execut": 2635,
      "bridge": 2636,
      "brother": 2637,
      "Canada": 2638,
      "village": 2639,
      "Em": 2640,
      "Egy": 2641,
      "dy": 2642,
      "econom": 2643,
      "achie": 2644,
      "whose": 2645,
      "prevent": 2646,
      "Que": 2647,
      "Ver": 2648,
      "bri": 2649,
      "give": 2650,
      "treat": 2651,
      "already": 2652,
      "forward": 2653,
      "pected": 2654,
      "increasing": 2655,
      "mixed": 2656,
      "Cro": 2657,
      "gold": 2658,
      "spo": 2659,
      "required": 2660,
      "probably": 2661,
      "Bra": 2662,
      "Year": 2663,
      "latter": 2664,
      "ming": 2665,
      "mult": 2666,
      "arily": 2667,
      "sell": 2668,
      "Carol": 2669,
      "agreed": 2670,
      "aries": 2671,
      "iss": 2672,
      "guitar": 2673,
      "tons": 2674,
      "marked": 2675,
      "captured": 2676,
      "ane": 2677,
      "states": 2678,
      "aces": 2679,
      "extr": 2680,
      "sian": 2681,
      "size": 2682,
      "religious": 2683,
      "ik": 2684,
      "dead": 2685,
      "proper": 2686,
      "police": 2687,
      "quarters": 2688,
      "changes": 2689,
      "soldiers": 2690,
      "Ap": 2691,
      "Times": 2692,
      "secur": 2693,
      "commission": 2694,
      "listed": 2695,
      "possib": 2696,
      "Scott": 2697,
      "relationship": 2698,
      "Henry": 2699,
      "ha": 2700,
      "champion": 2701,
      "That": 2702,
      "Gold": 2703,
      "Mal": 2704,
      "ded": 2705,
      "hard": 2706,
      "ata": 2707,
      "ilities": 2708,
      "souri": 2709,
      "Missouri": 2710,
      "better": 2711,
      "Hol": 2712,
      "Tor": 2713,
      "aters": 2714,
      "defin": 2715,
      "remaining": 2716,
      "suggested": 2717,
      "beginning": 2718,
      "dol": 2719,
      "enough": 2720,
      "defeat": 2721,
      "oney": 2722,
      "ference": 2723,
      "international": 2724,
      "Ha": 2725,
      "watch": 2726,
      "debut": 2727,
      "super": 2728,
      "decision": 2729,
      "introduced": 2730,
      "Bus": 2731,
      "failed": 2732,
      "nearly": 2733,
      "rd": 2734,
      "according": 2735,
      "winning": 2736,
      "Cam": 2737,
      "daugh": 2738,
      "mass": 2739,
      "sat": 2740,
      "lyr": 2741,
      "respond": 2742,
      "running": 2743,
      "text": 2744,
      "AA": 2745,
      "happ": 2746,
      "mal": 2747,
      "vate": 2748,
      "aled": 2749,
      "Under": 2750,
      "capital": 2751,
      "Peter": 2752,
      "Africa": 2753,
      "fleet": 2754,
      "Egypt": 2755,
      "Great": 2756,
      "nest": 2757,
      "thus": 2758,
      "inated": 2759,
      "usion": 2760,
      "prog": 2761,
      "pound": 2762,
      "shows": 2763,
      "Tech": 2764,
      "language": 2765,
      "Lu": 2766,
      "Mid": 2767,
      "Squadron": 2768,
      "ken": 2769,
      "must": 2770,
      "independ": 2771,
      "concern": 2772,
      "moving": 2773,
      "istic": 2774,
      "187": 2775,
      "India": 2776,
      "Philip": 2777,
      "Hu": 2778,
      "Vir": 2779,
      "liter": 2780,
      "might": 2781,
      "rate": 2782,
      "ula": 2783,
      "ateg": 2784,
      "feel": 2785,
      "recording": 2786,
      "Charles": 2787,
      "Gal": 2788,
      "pot": 2789,
      "sen": 2790,
      "espe": 2791,
      "league": 2792,
      "chol": 2793,
      "overnor": 2794,
      "spent": 2795,
      "cred": 2796,
      "minor": 2797,
      "Associ": 2798,
      "Germany": 2799,
      "Spanish": 2800,
      "especially": 2801,
      "Many": 2802,
      "lam": 2803,
      "lot": 2804,
      "staff": 2805,
      "idents": 2806,
      "uture": 2807,
      "perform": 2808,
      "visit": 2809,
      "object": 2810,
      "supported": 2811,
      "Colle": 2812,
      "approximately": 2813,
      "destroyed": 2814,
      "Cong": 2815,
      "uments": 2816,
      "illery": 2817,
      "intended": 2818,
      "northeast": 2819,
      "groups": 2820,
      "favor": 2821,
      "History": 2822,
      "educ": 2823,
      "colon": 2824,
      "mur": 2825,
      "reser": 2826,
      "division": 2827,
      "space": 2828,
      "discovered": 2829,
      "syn": 2830,
      "reviews": 2831,
      "commercial": 2832,
      "exten": 2833,
      "mention": 2834,
      "operation": 2835,
      "response": 2836,
      "36": 2837,
      "Awards": 2838,
      "ient": 2839,
      "tank": 2840,
      "irth": 2841,
      "evol": 2842,
      "ails": 2843,
      "includes": 2844,
      "Art": 2845,
      "location": 2846,
      "fighting": 2847,
      "Irish": 2848,
      "sometimes": 2849,
      "here": 2850,
      "enj": 2851,
      "depart": 2852,
      "office": 2853,
      "prior": 2854,
      "Cour": 2855,
      "Jer": 2856,
      "sts": 2857,
      "uded": 2858,
      "keep": 2859,
      "larger": 2860,
      "related": 2861,
      "Canadian": 2862,
      "Fort": 2863,
      "NA": 2864,
      "assigned": 2865,
      "Another": 2866,
      "archae": 2867,
      "runs": 2868,
      "constructed": 2869,
      "additional": 2870,
      "magazine": 2871,
      "Film": 2872,
      "oring": 2873,
      "food": 2874,
      "ministr": 2875,
      "natural": 2876,
      "FA": 2877,
      "Gro": 2878,
      "Sing": 2879,
      "Ty": 2880,
      "aring": 2881,
      "chap": 2882,
      "provide": 2883,
      "Western": 2884,
      "bot": 2885,
      "frequ": 2886,
      "deep": 2887,
      "ulated": 2888,
      "exc": 2889,
      "exam": 2890,
      "active": 2891,
      "goals": 2892,
      "Arab": 2893,
      "habit": 2894,
      "Brown": 2895,
      "Sun": 2896,
      "pay": 2897,
      "orm": 2898,
      "ila": 2899,
      "mostly": 2900,
      "indic": 2901,
      "doc": 2902,
      "ronic": 2903,
      "Oldham": 2904,
      "bow": 2905,
      "jour": 2906,
      "kil": 2907,
      "ana": 2908,
      "assi": 2909,
      "urt": 2910,
      "print": 2911,
      "Hurricane": 2912,
      "Sou": 2913,
      "male": 2914,
      "whe": 2915,
      "woman": 2916,
      "ishop": 2917,
      "pressure": 2918,
      "Res": 2919,
      "Vict": 2920,
      "social": 2921,
      "vier": 2922,
      "weight": 2923,
      "subject": 2924,
      "changed": 2925,
      "Mac": 2926,
      "nation": 2927,
      "olic": 2928,
      "ries": 2929,
      "quare": 2930,
      "lies": 2931,
      "artment": 2932,
      "minutes": 2933,
      "Steven": 2934,
      "Pre": 2935,
      "carried": 2936,
      "future": 2937,
      "pan": 2938,
      "becoming": 2939,
      "1999": 2940,
      "feature": 2941,
      "request": 2942,
      "UK": 2943,
      "bit": 2944,
      "adop": 2945,
      "shown": 2946,
      "China": 2947,
      "phys": 2948,
      "smaller": 2949,
      "subsequently": 2950,
      "33": 2951,
      "Light": 2952,
      "cele": 2953,
      "aker": 2954,
      "notes": 2955,
      "fru": 2956,
      "Olivier": 2957,
      "Since": 2958,
      "Tour": 2959,
      "pers": 2960,
      "thick": 2961,
      "sto": 2962,
      "president": 2963,
      "ranked": 2964,
      "Hel": 2965,
      "Tom": 2966,
      "score": 2967,
      "wound": 2968,
      "thedr": 2969,
      "anal": 2970,
      "ream": 2971,
      "spital": 2972,
      "1995": 2973,
      "relative": 2974,
      "teams": 2975,
      "Super": 2976,
      "ky": 2977,
      "mir": 2978,
      "inci": 2979,
      "andon": 2980,
      "contr": 2981,
      "plays": 2982,
      "surface": 2983,
      "referred": 2984,
      "Jewish": 2985,
      "quickly": 2986,
      "Law": 2987,
      "Wheel": 2988,
      "fell": 2989,
      "roll": 2990,
      "acqu": 2991,
      "entered": 2992,
      "cean": 2993,
      "ctive": 2994,
      "affic": 2995,
      "venue": 2996,
      "attacks": 2997,
      "problems": 2998,
      "Bel": 2999,
      "Camp": 3000,
      "rem": 3001,
      "asy": 3002,
      "peror": 3003,
      "percent": 3004,
      "ize": 3005,
      "selves": 3006,
      "rison": 3007,
      "broadcast": 3008,
      "Bro": 3009,
      "Gi": 3010,
      "La": 3011,
      "flow": 3012,
      "unit": 3013,
      "atory": 3014,
      "temper": 3015,
      "Guitar": 3016,
      "aurus": 3017,
      "radio": 3018,
      "Billboard": 3019,
      "Association": 3020,
      "Oly": 3021,
      "oid": 3022,
      "ses": 3023,
      "ederal": 3024,
      "imp": 3025,
      "Rose": 3026,
      "mond": 3027,
      "appears": 3028,
      "equip": 3029,
      "fifth": 3030,
      "Olymp": 3031,
      "Jin": 3032,
      "birth": 3033,
      "pal": 3034,
      "sal": 3035,
      "ita": 3036,
      "conf": 3037,
      "pose": 3038,
      "idea": 3039,
      "Rac": 3040,
      "Tropical": 3041,
      "leaving": 3042,
      "create": 3043,
      "media": 3044,
      "Force": 3045,
      "course": 3046,
      "professional": 3047,
      "closed": 3048,
      "37": 3049,
      "Cath": 3050,
      "ying": 3051,
      "itz": 3052,
      "adap": 3053,
      "secut": 3054,
      "image": 3055,
      "appl": 3056,
      "aven": 3057,
      "Manila": 3058,
      "majority": 3059,
      "nomin": 3060,
      "edy": 3061,
      "edge": 3062,
      "apo": 3063,
      "atest": 3064,
      "load": 3065,
      "election": 3066,
      "officers": 3067,
      "Second": 3068,
      "alifor": 3069,
      "suffered": 3070,
      "summer": 3071,
      "launched": 3072,
      "brief": 3073,
      "Gl": 3074,
      "Latin": 3075,
      "umn": 3076,
      "minute": 3077,
      "anna": 3078,
      "attacked": 3079,
      "thedral": 3080,
      "48": 3081,
      "uals": 3082,
      "withdraw": 3083,
      "1950": 3084,
      "aps": 3085,
      "themselves": 3086,
      "complex": 3087,
      "students": 3088,
      "primary": 3089,
      "Back": 3090,
      "Hor": 3091,
      "fill": 3092,
      "makes": 3093,
      "paren": 3094,
      "always": 3095,
      "igan": 3096,
      "rael": 3097,
      "ensity": 3098,
      "largely": 3099,
      "effects": 3100,
      "400": 3101,
      "Califor": 3102,
      "Im": 3103,
      "fully": 3104,
      "rapid": 3105,
      "artillery": 3106,
      "overall": 3107,
      "Offic": 3108,
      "occurred": 3109,
      "Central": 3110,
      "Virgin": 3111,
      "Victor": 3112,
      "Penn": 3113,
      "reme": 3114,
      "contains": 3115,
      "1998": 3116,
      "Arch": 3117,
      "films": 3118,
      "Frank": 3119,
      "scenes": 3120,
      "experience": 3121,
      "lyrics": 3122,
      "9th": 3123,
      "bomb": 3124,
      "gins": 3125,
      "yer": 3126,
      "onto": 3127,
      "ander": 3128,
      "concert": 3129,
      "prison": 3130,
      "bring": 3131,
      "longer": 3132,
      "critical": 3133,
      "stream": 3134,
      "Council": 3135,
      "Go": 3136,
      "fail": 3137,
      "traffic": 3138,
      "box": 3139,
      "Israel": 3140,
      "Wheeler": 3141,
      "Dan": 3142,
      "Mr": 3143,
      "cm": 3144,
      "dig": 3145,
      "ga": 3146,
      "link": 3147,
      "Common": 3148,
      "aught": 3149,
      "investig": 3150,
      "Lad": 3151,
      "Tem": 3152,
      "ny": 3153,
      "sil": 3154,
      "lived": 3155,
      "increase": 3156,
      "movement": 3157,
      "status": 3158,
      "screen": 3159,
      "daughter": 3160,
      "Not": 3161,
      "fans": 3162,
      "job": 3163,
      "rein": 3164,
      "ication": 3165,
      "demon": 3166,
      "vement": 3167,
      "conflict": 3168,
      "agon": 3169,
      "plot": 3170,
      "abandon": 3171,
      "ume": 3172,
      "proposed": 3173,
      "emer": 3174,
      "pring": 3175,
      "2016": 3176,
      "musical": 3177,
      "stitute": 3178,
      "casual": 3179,
      "Croat": 3180,
      "California": 3181,
      "Lou": 3182,
      "bal": 3183,
      "sus": 3184,
      "schol": 3185,
      "otion": 3186,
      "ership": 3187,
      "jected": 3188,
      "Brad": 3189,
      "issued": 3190,
      "Ale": 3191,
      "How": 3192,
      "bad": 3193,
      "teach": 3194,
      "undred": 3195,
      "classi": 3196,
      "upper": 3197,
      "grant": 3198,
      "speed": 3199,
      "Tur": 3200,
      "dark": 3201,
      "money": 3202,
      "send": 3203,
      "zz": 3204,
      "removed": 3205,
      "amed": 3206,
      "Record": 3207,
      "commander": 3208,
      "influence": 3209,
      "hair": 3210,
      "slight": 3211,
      "below": 3212,
      "1930": 3213,
      "exper": 3214,
      "Commission": 3215,
      "Major": 3216,
      "associated": 3217,
      "Tri": 3218,
      "hop": 3219,
      "mitted": 3220,
      "offer": 3221,
      "aging": 3222,
      "20th": 3223,
      "ept": 3224,
      "party": 3225,
      "meant": 3226,
      "icket": 3227,
      "voice": 3228,
      "Mil": 3229,
      "Over": 3230,
      "jud": 3231,
      "nature": 3232,
      "purch": 3233,
      "ergy": 3234,
      "ultim": 3235,
      "planned": 3236,
      "boats": 3237,
      "serious": 3238,
      "numbers": 3239,
      "Northern": 3240,
      "culture": 3241,
      "settle": 3242,
      "Republic": 3243,
      "cyclone": 3244,
      "FI": 3245,
      "rup": 3246,
      "leave": 3247,
      "igr": 3248,
      "terms": 3249,
      "suit": 3250,
      "necess": 3251,
      "centre": 3252,
      "Michigan": 3253,
      "bodies": 3254,
      "Rachel": 3255,
      "300": 3256,
      "Mart": 3257,
      "mom": 3258,
      "takes": 3259,
      "expected": 3260,
      "portion": 3261,
      "private": 3262,
      "Gul": 3263,
      "ami": 3264,
      "awarded": 3265,
      "arriage": 3266,
      "legal": 3267,
      "performances": 3268,
      "African": 3269,
      "morning": 3270,
      "32": 3271,
      "bio": 3272,
      "rare": 3273,
      "unable": 3274,
      "plans": 3275,
      "pole": 3276,
      "ports": 3277,
      "finan": 3278,
      "market": 3279,
      "buildings": 3280,
      "advance": 3281,
      "corpor": 3282,
      "directly": 3283,
      "whether": 3284,
      "celebr": 3285,
      "Wood": 3286,
      "emb": 3287,
      "twent": 3288,
      "finally": 3289,
      "observ": 3290,
      "sequence": 3291,
      "personal": 3292,
      "join": 3293,
      "companies": 3294,
      "Court": 3295,
      "Center": 3296,
      "If": 3297,
      "Lord": 3298,
      "dem": 3299,
      "determin": 3300,
      "ulpt": 3301,
      "suc": 3302,
      "trade": 3303,
      "commit": 3304,
      "weap": 3305,
      "sculpt": 3306,
      "records": 3307,
      "advant": 3308,
      "conducted": 3309,
      "Lake": 3310,
      "Sever": 3311,
      "ben": 3312,
      "mel": 3313,
      "sched": 3314,
      "infantry": 3315,
      "earned": 3316,
      "Station": 3317,
      "compared": 3318,
      "cks": 3319,
      "wealth": 3320,
      "Earth": 3321,
      "competition": 3322,
      "commented": 3323,
      "meaning": 3324,
      "responsible": 3325,
      "39": 3326,
      "Cer": 3327,
      "Ri": 3328,
      "yet": 3329,
      "ency": 3330,
      "tom": 3331,
      "health": 3332,
      "living": 3333,
      "neg": 3334,
      "mith": 3335,
      "stein": 3336,
      "Jane": 3337,
      "strength": 3338,
      "Land": 3339,
      "Ot": 3340,
      "married": 3341,
      "pet": 3342,
      "waters": 3343,
      "insp": 3344,
      "theme": 3345,
      "atre": 3346,
      "access": 3347,
      "forts": 3348,
      "umb": 3349,
      "Its": 3350,
      "method": 3351,
      "Through": 3352,
      "syl": 3353,
      "chall": 3354,
      "demand": 3355,
      "die": 3356,
      "Studi": 3357,
      "presence": 3358,
      "aily": 3359,
      "promin": 3360,
      "double": 3361,
      "47": 3362,
      "ML": 3363,
      "Sen": 3364,
      "Tay": 3365,
      "Tex": 3366,
      "gas": 3367,
      "gir": 3368,
      "hol": 3369,
      "throw": 3370,
      "vie": 3371,
      "fected": 3372,
      "raised": 3373,
      "writers": 3374,
      "episodes": 3375,
      "Sea": 3376,
      "battles": 3377,
      "attempted": 3378,
      "industry": 3379,
      "Museum": 3380,
      "Spe": 3381,
      "aby": 3382,
      "bi": 3383,
      "batter": 3384,
      "offered": 3385,
      "earth": 3386,
      "Chic": 3387,
      "Mos": 3388,
      "done": 3389,
      "eding": 3390,
      "irt": 3391,
      "distri": 3392,
      "clad": 3393,
      "discover": 3394,
      "1993": 3395,
      "ifa": 3396,
      "activity": 3397,
      "figure": 3398,
      "piece": 3399,
      "immediately": 3400,
      "Fle": 3401,
      "Fore": 3402,
      "kind": 3403,
      "pow": 3404,
      "tourn": 3405,
      "possess": 3406,
      "weaken": 3407,
      "newsp": 3408,
      "giving": 3409,
      "matches": 3410,
      "Club": 3411,
      "schools": 3412,
      "College": 3413,
      "murder": 3414,
      "Texas": 3415,
      "Bri": 3416,
      "plat": 3417,
      "Storm": 3418,
      "whole": 3419,
      "archite": 3420,
      "ario": 3421,
      "helped": 3422,
      "stories": 3423,
      "polic": 3424,
      "portray": 3425,
      "selected": 3426,
      "3rd": 3427,
      "Bal": 3428,
      "Boy": 3429,
      "Haw": 3430,
      "big": 3431,
      "ram": 3432,
      "attract": 3433,
      "escap": 3434,
      "begins": 3435,
      "stra": 3436,
      "actor": 3437,
      "1996": 3438,
      "heads": 3439,
      "starting": 3440,
      "Parliament": 3441,
      "ville": 3442,
      "Corps": 3443,
      "Haifa": 3444,
      "cul": 3445,
      "wal": 3446,
      "step": 3447,
      "composed": 3448,
      "Three": 3449,
      "1997": 3450,
      "Enter": 3451,
      "Both": 3452,
      "tracks": 3453,
      "network": 3454,
      "machine": 3455,
      "Stevens": 3456,
      "Taylor": 3457,
      "MS": 3458,
      "eu": 3459,
      "hus": 3460,
      "enon": 3461,
      "ites": 3462,
      "verse": 3463,
      "nearby": 3464,
      "allowing": 3465,
      "greater": 3466,
      "cruis": 3467,
      "Catholic": 3468,
      "Several": 3469,
      "hundred": 3470,
      "park": 3471,
      "ray": 3472,
      "uter": 3473,
      "inal": 3474,
      "really": 3475,
      "beat": 3476,
      "plant": 3477,
      "fles": 3478,
      "carry": 3479,
      "Christmas": 3480,
      "faced": 3481,
      "Department": 3482,
      "Chicago": 3483,
      "76": 3484,
      "Bob": 3485,
      "pian": 3486,
      "heav": 3487,
      "sey": 3488,
      "Head": 3489,
      "continue": 3490,
      "battalion": 3491,
      "books": 3492,
      "tellig": 3493,
      "target": 3494,
      "expand": 3495,
      "Operation": 3496,
      "Just": 3497,
      "inn": 3498,
      "istics": 3499,
      "genus": 3500,
      "highly": 3501,
      "annual": 3502,
      "chester": 3503,
      "advan": 3504,
      "sembly": 3505,
      "individual": 3506,
      "Cross": 3507,
      "Jim": 3508,
      "kan": 3509,
      "ili": 3510,
      "cting": 3511,
      "distin": 3512,
      "Series": 3513,
      "traditional": 3514,
      "Galve": 3515,
      "casualties": 3516,
      "gent": 3517,
      "inside": 3518,
      "except": 3519,
      "assault": 3520,
      "150": 3521,
      "resulted": 3522,
      "greatest": 3523,
      "initial": 3524,
      "McC": 3525,
      "Philipp": 3526,
      "impact": 3527,
      "bour": 3528,
      "bank": 3529,
      "fast": 3530,
      "sides": 3531,
      "1991": 3532,
      "Service": 3533,
      "situation": 3534,
      "Ter": 3535,
      "bs": 3536,
      "crow": 3537,
      "itor": 3538,
      "confir": 3539,
      "orders": 3540,
      "itting": 3541,
      "Acad": 3542,
      "Jackson": 3543,
      "Italian": 3544,
      "Galveston": 3545,
      "49": 3546,
      "Los": 3547,
      "Mill": 3548,
      "Qu": 3549,
      "information": 3550,
      "deb": 3551,
      "artist": 3552,
      "ously": 3553,
      "180": 3554,
      "gue": 3555,
      "regard": 3556,
      "drum": 3557,
      "Bey": 3558,
      "attempts": 3559,
      "middle": 3560,
      "figures": 3561,
      "gods": 3562,
      "touchdown": 3563,
      "inspired": 3564,
      "NC": 3565,
      "Pat": 3566,
      "Saint": 3567,
      "Var": 3568,
      "oc": 3569,
      "things": 3570,
      "ering": 3571,
      "deploy": 3572,
      "abs": 3573,
      "shoot": 3574,
      "aware": 3575,
      "extended": 3576,
      "services": 3577,
      "controver": 3578,
      "southeast": 3579,
      "stitut": 3580,
      "deliver": 3581,
      "4th": 3582,
      "Foot": 3583,
      "Mem": 3584,
      "Tenn": 3585,
      "mit": 3586,
      "naval": 3587,
      "rat": 3588,
      "saf": 3589,
      "inner": 3590,
      "env": 3591,
      "armed": 3592,
      "itation": 3593,
      "bey": 3594,
      "resc": 3595,
      "something": 3596,
      "headquarters": 3597,
      "Colon": 3598,
      "issues": 3599,
      "combat": 3600,
      "audience": 3601,
      "Party": 3602,
      "6th": 3603,
      "dated": 3604,
      "hic": 3605,
      "mouth": 3606,
      "stating": 3607,
      "concept": 3608,
      "1994": 3609,
      "struck": 3610,
      "numerous": 3611,
      "hood": 3612,
      "refused": 3613,
      "Georg": 3614,
      "needed": 3615,
      "houses": 3616,
      "vocals": 3617,
      "Carolina": 3618,
      "security": 3619,
      "sylvan": 3620,
      "Bow": 3621,
      "Ca": 3622,
      "Sar": 3623,
      "ugu": 3624,
      "struction": 3625,
      "anger": 3626,
      "severe": 3627,
      "metal": 3628,
      "heavily": 3629,
      "Civ": 3630,
      "Emp": 3631,
      "Six": 3632,
      "Young": 3633,
      "drew": 3634,
      "gain": 3635,
      "oud": 3636,
      "vey": 3637,
      "contemporary": 3638,
      "residents": 3639,
      "hero": 3640,
      "intensity": 3641,
      "apped": 3642,
      "collection": 3643,
      "Sovi": 3644,
      "Lady": 3645,
      "Empire": 3646,
      "Are": 3647,
      "Big": 3648,
      "Live": 3649,
      "wing": 3650,
      "isl": 3651,
      "uries": 3652,
      "olf": 3653,
      "sho": 3654,
      "anta": 3655,
      "conditions": 3656,
      "Alice": 3657,
      "defend": 3658,
      "variety": 3659,
      "Soci": 3660,
      "rule": 3661,
      "friends": 3662,
      "meeting": 3663,
      "separate": 3664,
      "enjoy": 3665,
      "Sur": 3666,
      "cis": 3667,
      "han": 3668,
      "ius": 3669,
      "path": 3670,
      "alo": 3671,
      "ases": 3672,
      "Their": 3673,
      "sets": 3674,
      "northwest": 3675,
      "standard": 3676,
      "onym": 3677,
      "explo": 3678,
      "document": 3679,
      "Nix": 3680,
      "Sol": 3681,
      "Villa": 3682,
      "hou": 3683,
      "lers": 3684,
      "nis": 3685,
      "nast": 3686,
      "adium": 3687,
      "dev": 3688,
      "boy": 3689,
      "higher": 3690,
      "declared": 3691,
      "Polish": 3692,
      "Highway": 3693,
      "peaked": 3694,
      "Group": 3695,
      "slightly": 3696,
      "border": 3697,
      "migr": 3698,
      "pson": 3699,
      "alle": 3700,
      "secret": 3701,
      "ett": 3702,
      "div": 3703,
      "sole": 3704,
      "peace": 3705,
      "owned": 3706,
      "iva": 3707,
      "flank": 3708,
      "producer": 3709,
      "singer": 3710,
      "offensive": 3711,
      "presented": 3712,
      "organized": 3713,
      "powerful": 3714,
      "divided": 3715,
      "completely": 3716,
      "reduced": 3717,
      "respectively": 3718,
      "source": 3719,
      "dollar": 3720,
      "education": 3721,
      "wounded": 3722,
      "husband": 3723,
      "sylvania": 3724,
      "Dire": 3725,
      "Four": 3726,
      "Nations": 3727,
      "Turn": 3728,
      "fa": 3729,
      "push": 3730,
      "olk": 3731,
      "1992": 3732,
      "officer": 3733,
      "studies": 3734,
      "eye": 3735,
      "Alex": 3736,
      "65": 3737,
      "Crit": 3738,
      "Smith": 3739,
      "Tre": 3740,
      "ensi": 3741,
      "ump": 3742,
      "sixth": 3743,
      "words": 3744,
      "Otto": 3745,
      "focus": 3746,
      "princi": 3747,
      "rane": 3748,
      "1990": 3749,
      "Americ": 3750,
      "Civil": 3751,
      "Games": 3752,
      "Sam": 3753,
      "carri": 3754,
      "pil": 3755,
      "cture": 3756,
      "arts": 3757,
      "ester": 3758,
      "estival": 3759,
      "Chris": 3760,
      "means": 3761,
      "missed": 3762,
      "Prince": 3763,
      "stitution": 3764,
      "combined": 3765,
      "34": 3766,
      "Dj": 3767,
      "Ill": 3768,
      "Liver": 3769,
      "bon": 3770,
      "marriage": 3771,
      "aspect": 3772,
      "clim": 3773,
      "eway": 3774,
      "award": 3775,
      "shell": 3776,
      "Alkan": 3777,
      "elected": 3778,
      "continues": 3779,
      "countries": 3780,
      "distance": 3781,
      "horse": 3782,
      "copies": 3783,
      "Liverpool": 3784,
      "Time": 3785,
      "Wash": 3786,
      "tic": 3787,
      "vation": 3788,
      "ero": 3789,
      "altar": 3790,
      "ado": 3791,
      "appe": 3792,
      "rend": 3793,
      "web": 3794,
      "Ross": 3795,
      "Paris": 3796,
      "types": 3797,
      "contrast": 3798,
      "Virginia": 3799,
      "Nixon": 3800,
      "Washington": 3801,
      "kick": 3802,
      "mile": 3803,
      "pul": 3804,
      "spl": 3805,
      "erset": 3806,
      "acing": 3807,
      "administr": 3808,
      "utch": 3809,
      "perial": 3810,
      "1970": 3811,
      "pedo": 3812,
      "defense": 3813,
      "asket": 3814,
      "levels": 3815,
      "inches": 3816,
      "Somerset": 3817,
      "concluded": 3818,
      "transferred": 3819,
      "Busch": 3820,
      "Del": 3821,
      "Met": 3822,
      "ging": 3823,
      "pick": 3824,
      "tax": 3825,
      "managed": 3826,
      "actually": 3827,
      "ousand": 3828,
      "Leg": 3829,
      "Australians": 3830,
      "widely": 3831,
      "activities": 3832,
      "relief": 3833,
      "territory": 3834,
      "Southern": 3835,
      "Pennsylvania": 3836,
      "Fur": 3837,
      "andid": 3838,
      "advis": 3839,
      "vehic": 3840,
      "bution": 3841,
      "acting": 3842,
      "efforts": 3843,
      "athan": 3844,
      "mium": 3845,
      "nucle": 3846,
      "photo": 3847,
      "Queen": 3848,
      "Football": 3849,
      "Der": 3850,
      "Fow": 3851,
      "Rh": 3852,
      "cé": 3853,
      "jun": 3854,
      "ancient": 3855,
      "toward": 3856,
      "district": 3857,
      "Jose": 3858,
      "viewers": 3859,
      "describes": 3860,
      "strike": 3861,
      "mountain": 3862,
      "Mosley": 3863,
      "Jam": 3864,
      "Little": 3865,
      "gs": 3866,
      "adult": 3867,
      "mocr": 3868,
      "sust": 3869,
      "attention": 3870,
      "grand": 3871,
      "calling": 3872,
      "background": 3873,
      "1942": 3874,
      "Spain": 3875,
      "Anderson": 3876,
      "Like": 3877,
      "ironclad": 3878,
      "Histor": 3879,
      "revealed": 3880,
      "torpedo": 3881,
      "extensive": 3882,
      "Louis": 3883,
      "AI": 3884,
      "BA": 3885,
      "Out": 3886,
      "Sir": 3887,
      "Up": 3888,
      "ease": 3889,
      "fear": 3890,
      "uated": 3891,
      "ufact": 3892,
      "arc": 3893,
      "today": 3894,
      "becomes": 3895,
      "strated": 3896,
      "portun": 3897,
      "resulting": 3898,
      "hands": 3899,
      "rights": 3900,
      "primarily": 3901,
      "rainfall": 3902,
      "accepted": 3903,
      "Vietnam": 3904,
      "parents": 3905,
      "Dou": 3906,
      "bid": 3907,
      "patter": 3908,
      "rush": 3909,
      "itude": 3910,
      "exhib": 3911,
      "mainly": 3912,
      "effort": 3913,
      "produce": 3914,
      "symb": 3915,
      "alongside": 3916,
      "Because": 3917,
      "designated": 3918,
      "says": 3919,
      "bing": 3920,
      "squadron": 3921,
      "concent": 3922,
      "quality": 3923,
      "creation": 3924,
      "address": 3925,
      "county": 3926,
      "capture": 3927,
      "arent": 3928,
      "trees": 3929,
      "Korean": 3930,
      "evolution": 3931,
      "Fowler": 3932,
      "Bul": 3933,
      "Fam": 3934,
      "Government": 3935,
      "Tran": 3936,
      "Wel": 3937,
      "square": 3938,
      "opportun": 3939,
      "lif": 3940,
      "shire": 3941,
      "bery": 3942,
      "affected": 3943,
      "scoring": 3944,
      "appearances": 3945,
      "featuring": 3946,
      "Book": 3947,
      "strial": 3948,
      "Minnes": 3949,
      "sexual": 3950,
      "Miami": 3951,
      "Angeles": 3952,
      "advantage": 3953,
      "Minnesota": 3954,
      "Long": 3955,
      "Os": 3956,
      "bury": 3957,
      "ns": 3958,
      "replac": 3959,
      "alty": 3960,
      "roles": 3961,
      "chair": 3962,
      "ression": 3963,
      "true": 3964,
      "passing": 3965,
      "sites": 3966,
      "piano": 3967,
      "paid": 3968,
      "wear": 3969,
      "incorpor": 3970,
      "prise": 3971,
      "visions": 3972,
      "suppl": 3973,
      "maxim": 3974,
      "vocal": 3975,
      "broken": 3976,
      "condoms": 3977,
      "Captain": 3978,
      "question": 3979,
      "44": 3980,
      "Hum": 3981,
      "Open": 3982,
      "WW": 3983,
      "cam": 3984,
      "sense": 3985,
      "iny": 3986,
      "reign": 3987,
      "sec": 3988,
      "agan": 3989,
      "serve": 3990,
      "cked": 3991,
      "seasons": 3992,
      "observed": 3993,
      "annel": 3994,
      "identified": 3995,
      "tainment": 3996,
      "showed": 3997,
      "tower": 3998,
      "vessel": 3999,
      "Manchester": 4000,
      "cathedral": 4001,
      "organization": 4002,
      "initi": 4003,
      "Scotland": 4004,
      "practice": 4005,
      "Academy": 4006,
      "Hot": 4007,
      "Water": 4008,
      "ding": 4009,
      "tur": 4010,
      "zy": 4011,
      "agg": 4012,
      "idian": 4013,
      "iving": 4014,
      "historical": 4015,
      "represented": 4016,
      "blue": 4017,
      "phoon": 4018,
      "ceeded": 4019,
      "Green": 4020,
      "relatively": 4021,
      "7th": 4022,
      "Bu": 4023,
      "federal": 4024,
      "hill": 4025,
      "ono": 4026,
      "university": 4027,
      "restor": 4028,
      "semi": 4029,
      "1920": 4030,
      "losing": 4031,
      "preser": 4032,
      "strugg": 4033,
      "extreme": 4034,
      "invasion": 4035,
      "looking": 4036,
      "mentioned": 4037,
      "ultimately": 4038,
      "Che": 4039,
      "Ever": 4040,
      "Jul": 4041,
      "Lan": 4042,
      "Ocean": 4043,
      "fil": 4044,
      "lb": 4045,
      "rich": 4046,
      "repe": 4047,
      "chor": 4048,
      "opin": 4049,
      "scale": 4050,
      "apparent": 4051,
      "1941": 4052,
      "Mean": 4053,
      "Russian": 4054,
      "Society": 4055,
      "Ottoman": 4056,
      "Fre": 4057,
      "Kent": 4058,
      "Tod": 4059,
      "mat": 4060,
      "paper": 4061,
      "oncé": 4062,
      "enemy": 4063,
      "Indu": 4064,
      "ements": 4065,
      "essa": 4066,
      "rance": 4067,
      "charge": 4068,
      "reception": 4069,
      "defence": 4070,
      "influenced": 4071,
      "ironment": 4072,
      "Meridian": 4073,
      "twenty": 4074,
      "Beyoncé": 4075,
      "cad": 4076,
      "nown": 4077,
      "pun": 4078,
      "uth": 4079,
      "ón": 4080,
      "delay": 4081,
      "expressed": 4082,
      "eval": 4083,
      "eves": 4084,
      "older": 4085,
      "ledge": 4086,
      "cannot": 4087,
      "write": 4088,
      "proteins": 4089,
      "Francis": 4090,
      "window": 4091,
      "typically": 4092,
      "nuclear": 4093,
      "surrounding": 4094,
      "telligence": 4095,
      "brown": 4096,
      "cities": 4097,
      "corn": 4098,
      "kes": 4099,
      "anas": 4100,
      "rect": 4101,
      "alone": 4102,
      "alleg": 4103,
      "beer": 4104,
      "excl": 4105,
      "spread": 4106,
      "Though": 4107,
      "Meyer": 4108,
      "Churchill": 4109,
      "blood": 4110,
      "excav": 4111,
      "kilomet": 4112,
      "adopted": 4113,
      "crowd": 4114,
      "42": 4115,
      "Home": 4116,
      "Prote": 4117,
      "mind": 4118,
      "rated": 4119,
      "rhy": 4120,
      "ti": 4121,
      "uk": 4122,
      "thousand": 4123,
      "resh": 4124,
      "finals": 4125,
      "athlet": 4126,
      "doing": 4127,
      "1986": 4128,
      "protest": 4129,
      "successfully": 4130,
      "Hawai": 4131,
      "maximum": 4132,
      "78": 4133,
      "Mog": 4134,
      "Nico": 4135,
      "Sto": 4136,
      "iel": 4137,
      "rum": 4138,
      "thir": 4139,
      "instr": 4140,
      "reaction": 4141,
      "mob": 4142,
      "mole": 4143,
      "artists": 4144,
      "oured": 4145,
      "boat": 4146,
      "evac": 4147,
      "contact": 4148,
      "tried": 4149,
      "officials": 4150,
      "homes": 4151,
      "46": 4152,
      "Field": 4153,
      "Produ": 4154,
      "ners": 4155,
      "edition": 4156,
      "itness": 4157,
      "ils": 4158,
      "chief": 4159,
      "manufact": 4160,
      "neigh": 4161,
      "attri": 4162,
      "pret": 4163,
      "themes": 4164,
      "thens": 4165,
      "founded": 4166,
      "1940": 4167,
      "reports": 4168,
      "personnel": 4169,
      "ysis": 4170,
      "Week": 4171,
      "Richmond": 4172,
      "earliest": 4173,
      "paint": 4174,
      "progress": 4175,
      "Temple": 4176,
      "Soviet": 4177,
      "nasty": 4178,
      "Welsh": 4179,
      "Cast": 4180,
      "Distr": 4181,
      "recomm": 4182,
      "dissip": 4183,
      "operated": 4184,
      "Marine": 4185,
      "Class": 4186,
      "Andrew": 4187,
      "Post": 4188,
      "sources": 4189,
      "abandoned": 4190,
      "necessary": 4191,
      "financial": 4192,
      "District": 4193,
      "5th": 4194,
      "Adam": 4195,
      "Def": 4196,
      "gal": 4197,
      "vince": 4198,
      "repair": 4199,
      "atives": 4200,
      "emphas": 4201,
      "avoid": 4202,
      "color": 4203,
      "Commun": 4204,
      "1988": 4205,
      "officially": 4206,
      "sister": 4207,
      "titled": 4208,
      "achieved": 4209,
      "commissioned": 4210,
      "asketball": 4211,
      "Sal": 4212,
      "bat": 4213,
      "verted": 4214,
      "oppon": 4215,
      "News": 4216,
      "legisl": 4217,
      "specim": 4218,
      "shortly": 4219,
      "Add": 4220,
      "floor": 4221,
      "prominent": 4222,
      "Ben": 4223,
      "Tim": 4224,
      "Tele": 4225,
      "ban": 4226,
      "ications": 4227,
      "estic": 4228,
      "guest": 4229,
      "spect": 4230,
      "direction": 4231,
      "Conf": 4232,
      "defensive": 4233,
      "basis": 4234,
      "Missis": 4235,
      "pieces": 4236,
      "sippi": 4237,
      "install": 4238,
      "Records": 4239,
      "Fleet": 4240,
      "Mississippi": 4241,
      "64": 4242,
      "Bet": 4243,
      "Er": 4244,
      "Hom": 4245,
      "Van": 4246,
      "hanna": 4247,
      "scient": 4248,
      "winter": 4249,
      "rear": 4250,
      "revol": 4251,
      "alions": 4252,
      "movie": 4253,
      "perman": 4254,
      "attended": 4255,
      "weak": 4256,
      "obtain": 4257,
      "Johnson": 4258,
      "passes": 4259,
      "structures": 4260,
      "currently": 4261,
      "flooding": 4262,
      "narrow": 4263,
      "Braa": 4264,
      "Mogad": 4265,
      "600": 4266,
      "95": 4267,
      "Avenue": 4268,
      "Pen": 4269,
      "Rad": 4270,
      "cers": 4271,
      "laid": 4272,
      "xenon": 4273,
      "actors": 4274,
      "forest": 4275,
      "transl": 4276,
      "1960s": 4277,
      "street": 4278,
      "pursu": 4279,
      "couple": 4280,
      "Blue": 4281,
      "dedicated": 4282,
      "girl": 4283,
      "tournament": 4284,
      "Illino": 4285,
      "hi": 4286,
      "your": 4287,
      "height": 4288,
      "comedy": 4289,
      "ems": 4290,
      "Alli": 4291,
      "places": 4292,
      "Origin": 4293,
      "authorities": 4294,
      "Edward": 4295,
      "cultural": 4296,
      "Middle": 4297,
      "potential": 4298,
      "determined": 4299,
      "newspaper": 4300,
      "Turner": 4301,
      "HMS": 4302,
      "cere": 4303,
      "sci": 4304,
      "uzz": 4305,
      "arrest": 4306,
      "else": 4307,
      "uten": 4308,
      "lives": 4309,
      "proved": 4310,
      "shape": 4311,
      "akapo": 4312,
      "Austri": 4313,
      "gency": 4314,
      "captain": 4315,
      "Engine": 4316,
      "hospital": 4317,
      "1980s": 4318,
      "trial": 4319,
      "inkel": 4320,
      "titles": 4321,
      "broke": 4322,
      "consisted": 4323,
      "Simpson": 4324,
      "Cal": 4325,
      "Hear": 4326,
      "Way": 4327,
      "candid": 4328,
      "seek": 4329,
      "ols": 4330,
      "consecut": 4331,
      "compound": 4332,
      "mechan": 4333,
      "roads": 4334,
      "occasion": 4335,
      "causing": 4336,
      "Townsend": 4337,
      "Rosebery": 4338,
      "Ven": 4339,
      "zo": 4340,
      "zed": 4341,
      "ishu": 4342,
      "iple": 4343,
      "landing": 4344,
      "intensi": 4345,
      "Secret": 4346,
      "society": 4347,
      "grew": 4348,
      "Walpole": 4349,
      "individuals": 4350,
      "weapons": 4351,
      "Americans": 4352,
      "Further": 4353,
      "Mogadishu": 4354,
      "Fred": 4355,
      "Finkel": 4356,
      "bin": 4357,
      "mes": 4358,
      "oil": 4359,
      "sales": 4360,
      "advert": 4361,
      "images": 4362,
      "lip": 4363,
      "artic": 4364,
      "ordin": 4365,
      "foc": 4366,
      "18th": 4367,
      "raid": 4368,
      "column": 4369,
      "seconds": 4370,
      "diff": 4371,
      "royal": 4372,
      "mounted": 4373,
      "Meyerbeer": 4374,
      "Nicole": 4375,
      "Finkelstein": 4376,
      "Lar": 4377,
      "MD": 4378,
      "Tessa": 4379,
      "dro": 4380,
      "folk": 4381,
      "ert": 4382,
      "unknown": 4383,
      "shap": 4384,
      "contain": 4385,
      "Thunder": 4386,
      "monument": 4387,
      "athus": 4388,
      "helm": 4389,
      "popul": 4390,
      "1985": 4391,
      "1944": 4392,
      "1970s": 4393,
      "Shiva": 4394,
      "reaching": 4395,
      "Team": 4396,
      "projects": 4397,
      "buried": 4398,
      "possibly": 4399,
      "fruit": 4400,
      "schedul": 4401,
      "kilometres": 4402,
      "consecutive": 4403,
      "Yue": 4404,
      "wild": 4405,
      "dete": 4406,
      "conve": 4407,
      "fired": 4408,
      "fiction": 4409,
      "worth": 4410,
      "premi": 4411,
      "osen": 4412,
      "follows": 4413,
      "suggests": 4414,
      "criticized": 4415,
      "function": 4416,
      "Apple": 4417,
      "rapidly": 4418,
      "confirmed": 4419,
      "Rhodes": 4420,
      "Bur": 4421,
      "Hait": 4422,
      "cat": 4423,
      "dut": 4424,
      "governor": 4425,
      "ker": 4426,
      "kept": 4427,
      "encour": 4428,
      "sections": 4429,
      "abama": 4430,
      "workers": 4431,
      "foreign": 4432,
      "Alabama": 4433,
      "visited": 4434,
      "leader": 4435,
      "claims": 4436,
      "cases": 4437,
      "honor": 4438,
      "battleship": 4439,
      "Meanwhile": 4440,
      "ceremon": 4441,
      "96": 4442,
      "Bol": 4443,
      "Gall": 4444,
      "Ram": 4445,
      "gained": 4446,
      "hu": 4447,
      "lic": 4448,
      "mort": 4449,
      "ror": 4450,
      "shore": 4451,
      "illu": 4452,
      "bute": 4453,
      "supply": 4454,
      "Short": 4455,
      "require": 4456,
      "killing": 4457,
      "Portugu": 4458,
      "Eastern": 4459,
      "management": 4460,
      "soundtrack": 4461,
      "freeway": 4462,
      "equipment": 4463,
      "Horse": 4464,
      "Philippines": 4465,
      "Braathens": 4466,
      "Portuguese": 4467,
      "93": 4468,
      "Bond": 4469,
      "DV": 4470,
      "Night": 4471,
      "SR": 4472,
      "ahead": 4473,
      "hed": 4474,
      "rical": 4475,
      "sac": 4476,
      "wave": 4477,
      "entrance": 4478,
      "prop": 4479,
      "los": 4480,
      "content": 4481,
      "disease": 4482,
      "temple": 4483,
      "condition": 4484,
      "frag": 4485,
      "Democr": 4486,
      "1964": 4487,
      "collap": 4488,
      "physical": 4489,
      "Background": 4490,
      "Illinois": 4491,
      "DVD": 4492,
      "43": 4493,
      "Dam": 4494,
      "Due": 4495,
      "Mat": 4496,
      "Nes": 4497,
      "cies": 4498,
      "rating": 4499,
      "sought": 4500,
      "tin": 4501,
      "energy": 4502,
      "tomb": 4503,
      "ingu": 4504,
      "grass": 4505,
      "phen": 4506,
      "Assembly": 4507,
      "letter": 4508,
      "protein": 4509,
      "prompt": 4510,
      "castle": 4511,
      "walls": 4512,
      "straight": 4513,
      "sustained": 4514,
      "BBC": 4515,
      "GA": 4516,
      "Writ": 4517,
      "bul": 4518,
      "branch": 4519,
      "fought": 4520,
      "voy": 4521,
      "yellow": 4522,
      "za": 4523,
      "unte": 4524,
      "lying": 4525,
      "debuted": 4526,
      "imag": 4527,
      "otional": 4528,
      "spot": 4529,
      "rence": 4530,
      "experienced": 4531,
      "doub": 4532,
      "Down": 4533,
      "Ox": 4534,
      "Pop": 4535,
      "Sum": 4536,
      "eigh": 4537,
      "farm": 4538,
      "mess": 4539,
      "museum": 4540,
      "ridge": 4541,
      "smo": 4542,
      "tact": 4543,
      "thr": 4544,
      "onic": 4545,
      "acad": 4546,
      "ilies": 4547,
      "chosen": 4548,
      "resol": 4549,
      "opposed": 4550,
      "emperor": 4551,
      "aust": 4552,
      "speak": 4553,
      "Reception": 4554,
      "1987": 4555,
      "simply": 4556,
      "letters": 4557,
      "Fey": 4558,
      "promoted": 4559,
      "reference": 4560,
      "authority": 4561,
      "pitched": 4562,
      "connected": 4563,
      "spirit": 4564,
      "measure": 4565,
      "Olympic": 4566,
      "Joseph": 4567,
      "hang": 4568,
      "nom": 4569,
      "resist": 4570,
      "elim": 4571,
      "Independ": 4572,
      "twice": 4573,
      "Stone": 4574,
      "landfall": 4575,
      "fix": 4576,
      "regions": 4577,
      "views": 4578,
      "albums": 4579,
      "Bridge": 4580,
      "plement": 4581,
      "Form": 4582,
      "returning": 4583,
      "extra": 4584,
      "granted": 4585,
      "moment": 4586,
      "advanced": 4587,
      "environment": 4588,
      "120": 4589,
      "Burn": 4590,
      "Each": 4591,
      "Mass": 4592,
      "Zhou": 4593,
      "pup": 4594,
      "rub": 4595,
      "theless": 4596,
      "ato": 4597,
      "stood": 4598,
      "arms": 4599,
      "ises": 4600,
      "ada": 4601,
      "brigade": 4602,
      "phy": 4603,
      "newly": 4604,
      "Boston": 4605,
      "controlled": 4606,
      "domestic": 4607,
      "systems": 4608,
      "sports": 4609,
      "employed": 4610,
      "injury": 4611,
      "seems": 4612,
      "Valley": 4613,
      "dropped": 4614,
      "economic": 4615,
      "journal": 4616,
      "nominated": 4617,
      "utenant": 4618,
      "Ball": 4619,
      "Far": 4620,
      "Public": 4621,
      "Rome": 4622,
      "ares": 4623,
      "dress": 4624,
      "fish": 4625,
      "wen": 4626,
      "unique": 4627,
      "adel": 4628,
      "agement": 4629,
      "containing": 4630,
      "finish": 4631,
      "ify": 4632,
      "therefore": 4633,
      "1984": 4634,
      "lane": 4635,
      "1972": 4636,
      "famous": 4637,
      "holds": 4638,
      "behavi": 4639,
      "Mountain": 4640,
      "growing": 4641,
      "victim": 4642,
      "auty": 4643,
      "poetry": 4644,
      "onymous": 4645,
      "Dis": 4646,
      "Even": 4647,
      "Greek": 4648,
      "Tint": 4649,
      "kg": 4650,
      "spring": 4651,
      "án": 4652,
      "union": 4653,
      "heart": 4654,
      "shif": 4655,
      "loy": 4656,
      "phil": 4657,
      "door": 4658,
      "Only": 4659,
      "1947": 4660,
      "Before": 4661,
      "steam": 4662,
      "depth": 4663,
      "results": 4664,
      "explained": 4665,
      "student": 4666,
      "flying": 4667,
      "maintained": 4668,
      "prepared": 4669,
      "multiple": 4670,
      "negative": 4671,
      "Varanas": 4672,
      "Tintin": 4673,
      "Varanasi": 4674,
      "51": 4675,
      "53": 4676,
      "AF": 4677,
      "Asia": 4678,
      "Pit": 4679,
      "bitt": 4680,
      "fair": 4681,
      "tun": 4682,
      "recon": 4683,
      "aly": 4684,
      "oft": 4685,
      "rot": 4686,
      "usual": 4687,
      "oppos": 4688,
      "share": 4689,
      "log": 4690,
      "Ann": 4691,
      "filmed": 4692,
      "calls": 4693,
      "organis": 4694,
      "Clark": 4695,
      "historian": 4696,
      "occupied": 4697,
      "Eva": 4698,
      "Addition": 4699,
      "Nesbitt": 4700,
      "Naz": 4701,
      "Oda": 4702,
      "aj": 4703,
      "eth": 4704,
      "sail": 4705,
      "enathus": 4706,
      "belong": 4707,
      "tery": 4708,
      "normal": 4709,
      "km2": 4710,
      "starts": 4711,
      "versions": 4712,
      "planet": 4713,
      "knowledge": 4714,
      "problem": 4715,
      "launch": 4716,
      "Among": 4717,
      "argued": 4718,
      "Torres": 4719,
      "Ceres": 4720,
      "website": 4721,
      "Odaenathus": 4722,
      "Jup": 4723,
      "Sil": 4724,
      "gam": 4725,
      "govern": 4726,
      "rejected": 4727,
      "asure": 4728,
      "ador": 4729,
      "seas": 4730,
      "beach": 4731,
      "ached": 4732,
      "evil": 4733,
      "Arm": 4734,
      "setting": 4735,
      "element": 4736,
      "1989": 4737,
      "decor": 4738,
      "1960": 4739,
      "1969": 4740,
      "families": 4741,
      "supporting": 4742,
      "Wilhelm": 4743,
      "suffic": 4744,
      "growth": 4745,
      "animal": 4746,
      "DuMont": 4747,
      "championship": 4748,
      "tanks": 4749,
      "Office": 4750,
      "settlement": 4751,
      "Forest": 4752,
      "Sarnia": 4753,
      "science": 4754,
      "Eli": 4755,
      "Lie": 4756,
      "bility": 4757,
      "dates": 4758,
      "inth": 4759,
      "ening": 4760,
      "arrang": 4761,
      "seg": 4762,
      "emic": 4763,
      "weather": 4764,
      "retired": 4765,
      "minim": 4766,
      "orses": 4767,
      "writes": 4768,
      "medical": 4769,
      "domin": 4770,
      "religion": 4771,
      "increasingly": 4772,
      "independent": 4773,
      "temperature": 4774,
      "55": 4775,
      "Fant": 4776,
      "pict": 4777,
      "task": 4778,
      "thur": 4779,
      "ros": 4780,
      "propos": 4781,
      "exped": 4782,
      "vised": 4783,
      "colour": 4784,
      "Once": 4785,
      "Argent": 4786,
      "Arthur": 4787,
      "More": 4788,
      "Conference": 4789,
      "marks": 4790,
      "travel": 4791,
      "Palest": 4792,
      "narr": 4793,
      "frequently": 4794,
      "classified": 4795,
      "41": 4796,
      "Blo": 4797,
      "Jour": 4798,
      "Sch": 4799,
      "UN": 4800,
      "ech": 4801,
      "kakapo": 4802,
      "rise": 4803,
      "chance": 4804,
      "rival": 4805,
      "1990s": 4806,
      "headed": 4807,
      "insula": 4808,
      "battalions": 4809,
      "Airport": 4810,
      "graphic": 4811,
      "Minister": 4812,
      "teenth": 4813,
      "graded": 4814,
      "analysis": 4815,
      "Gulf": 4816,
      "Oxford": 4817,
      "Bank": 4818,
      "Ul": 4819,
      "bishop": 4820,
      "basketball": 4821,
      "catch": 4822,
      "thew": 4823,
      "Album": 4824,
      "singles": 4825,
      "Develop": 4826,
      "Constant": 4827,
      "council": 4828,
      "believe": 4829,
      "Italy": 4830,
      "Scottish": 4831,
      "failure": 4832,
      "weakened": 4833,
      "cadmium": 4834,
      "Allied": 4835,
      "scheduled": 4836,
      "Jupiter": 4837,
      "Dutch": 4838,
      "Lew": 4839,
      "Oma": 4840,
      "PA": 4841,
      "haps": 4842,
      "matter": 4843,
      "ovic": 4844,
      "encounter": 4845,
      "iles": 4846,
      "rie": 4847,
      "umber": 4848,
      "strate": 4849,
      "quake": 4850,
      "herself": 4851,
      "neut": 4852,
      "assass": 4853,
      "note": 4854,
      "desc": 4855,
      "ranged": 4856,
      "ultural": 4857,
      "colony": 4858,
      "submar": 4859,
      "ideas": 4860,
      "reflect": 4861,
      "Admir": 4862,
      "System": 4863,
      "entirely": 4864,
      "subsequent": 4865,
      "incident": 4866,
      "Final": 4867,
      "selling": 4868,
      "Helms": 4869,
      "Bowl": 4870,
      "Family": 4871,
      "Omaha": 4872,
      "56": 4873,
      "Cra": 4874,
      "Fox": 4875,
      "Ly": 4876,
      "Line": 4877,
      "Ob": 4878,
      "bud": 4879,
      "cited": 4880,
      "fung": 4881,
      "rick": 4882,
      "restrict": 4883,
      "accompan": 4884,
      "iments": 4885,
      "convent": 4886,
      "Institute": 4887,
      "iana": 4888,
      "attend": 4889,
      "compar": 4890,
      "contained": 4891,
      "creating": 4892,
      "aired": 4893,
      "singing": 4894,
      "serving": 4895,
      "value": 4896,
      "solo": 4897,
      "wooden": 4898,
      "popularity": 4899,
      "agreement": 4900,
      "favour": 4901,
      "collabor": 4902,
      "contributed": 4903,
      "participated": 4904,
      "belief": 4905,
      "Victoria": 4906,
      "Horn": 4907,
      "NL": 4908,
      "din": 4909,
      "sand": 4910,
      "witness": 4911,
      "stages": 4912,
      "chose": 4913,
      "perfect": 4914,
      "flag": 4915,
      "1981": 4916,
      "Isa": 4917,
      "southwest": 4918,
      "seventh": 4919,
      "Perón": 4920,
      "significantly": 4921,
      "improve": 4922,
      "urban": 4923,
      "PlayStation": 4924,
      "literature": 4925,
      "battery": 4926,
      "policy": 4927,
      "Fl": 4928,
      "Gord": 4929,
      "ule": 4930,
      "contest": 4931,
      "otes": 4932,
      "Innis": 4933,
      "phia": 4934,
      "osop": 4935,
      "animals": 4936,
      "Mike": 4937,
      "responded": 4938,
      "senior": 4939,
      "adelphia": 4940,
      "Gordon": 4941,
      "Bishop": 4942,
      "Dest": 4943,
      "Jon": 4944,
      "Lester": 4945,
      "Sup": 4946,
      "dict": 4947,
      "uan": 4948,
      "yle": 4949,
      "agent": 4950,
      "acks": 4951,
      "timore": 4952,
      "awards": 4953,
      "crete": 4954,
      "commonly": 4955,
      "sions": 4956,
      "capable": 4957,
      "USA": 4958,
      "Cardiff": 4959,
      "missions": 4960,
      "Williams": 4961,
      "issance": 4962,
      "bottom": 4963,
      "Baltimore": 4964,
      "innings": 4965,
      "turret": 4966,
      "shaped": 4967,
      "Baby": 4968,
      "Den": 4969,
      "ERA": 4970,
      "Governor": 4971,
      "IV": 4972,
      "Jef": 4973,
      "Never": 4974,
      "ires": 4975,
      "kare": 4976,
      "asc": 4977,
      "isol": 4978,
      "heard": 4979,
      "imony": 4980,
      "1918": 4981,
      "coal": 4982,
      "outs": 4983,
      "Child": 4984,
      "disp": 4985,
      "fields": 4986,
      "distingu": 4987,
      "college": 4988,
      "losses": 4989,
      "drive": 4990,
      "recognized": 4991,
      "phase": 4992,
      "property": 4993,
      "Egyptian": 4994,
      "Congress": 4995,
      "filled": 4996,
      "McCall": 4997,
      "appeal": 4998,
      "supplies": 4999,
      "AD": 5000,
      "Bir": 5001,
      "Cy": 5002,
      "Rol": 5003,
      "TC": 5004,
      "mical": 5005,
      "master": 5006,
      "oth": 5007,
      "onom": 5008,
      "icip": 5009,
      "wides": 5010,
      "train": 5011,
      "ansas": 5012,
      "simple": 5013,
      "allows": 5014,
      "publication": 5015,
      "risk": 5016,
      "deaths": 5017,
      "facilities": 5018,
      "historic": 5019,
      "declined": 5020,
      "borough": 5021,
      "painting": 5022,
      "goti": 5023,
      "Hamels": 5024,
      "model": 5025,
      "remn": 5026,
      "briefly": 5027,
      "purchased": 5028,
      "Rihanna": 5029,
      "700": 5030,
      "Dream": 5031,
      "Five": 5032,
      "Kh": 5033,
      "Kar": 5034,
      "Revolution": 5035,
      "Slam": 5036,
      "gather": 5037,
      "theory": 5038,
      "eds": 5039,
      "roof": 5040,
      "ween": 5041,
      "brary": 5042,
      "ickets": 5043,
      "Also": 5044,
      "izing": 5045,
      "regarded": 5046,
      "secondary": 5047,
      "choice": 5048,
      "1943": 5049,
      "description": 5050,
      "1968": 5051,
      "effective": 5052,
      "People": 5053,
      "Mounted": 5054,
      "layer": 5055,
      "poems": 5056,
      "technique": 5057,
      "RAAF": 5058,
      "patro": 5059,
      "recently": 5060,
      "slowly": 5061,
      "Malay": 5062,
      "Croatia": 5063,
      "Between": 5064,
      "Lieutenant": 5065,
      "CA": 5066,
      "Card": 5067,
      "Di": 5068,
      "Good": 5069,
      "Lis": 5070,
      "gree": 5071,
      "rac": 5072,
      "virt": 5073,
      "edkare": 5074,
      "stations": 5075,
      "degree": 5076,
      "agric": 5077,
      "notable": 5078,
      "pread": 5079,
      "highlight": 5080,
      "publish": 5081,
      "Coast": 5082,
      "1965": 5083,
      "occas": 5084,
      "venture": 5085,
      "gives": 5086,
      "turns": 5087,
      "collected": 5088,
      "Philadelphia": 5089,
      "eyes": 5090,
      "scholar": 5091,
      "challeng": 5092,
      "expanded": 5093,
      "beyond": 5094,
      "Djedkare": 5095,
      "aspects": 5096,
      "Today": 5097,
      "budget": 5098,
      "130": 5099,
      "Mah": 5100,
      "Native": 5101,
      "Press": 5102,
      "Vide": 5103,
      "fresh": 5104,
      "edar": 5105,
      "atmo": 5106,
      "berg": 5107,
      "negoti": 5108,
      "fication": 5109,
      "draft": 5110,
      "paralle": 5111,
      "engaged": 5112,
      "Lock": 5113,
      "worldwide": 5114,
      "armor": 5115,
      "1939": 5116,
      "holding": 5117,
      "cells": 5118,
      "Swed": 5119,
      "executive": 5120,
      "Entertainment": 5121,
      "atmosp": 5122,
      "54": 5123,
      "Hib": 5124,
      "Ka": 5125,
      "SP": 5126,
      "dream": 5127,
      "daily": 5128,
      "fat": 5129,
      "fit": 5130,
      "labor": 5131,
      "tional": 5132,
      "rose": 5133,
      "oldest": 5134,
      "Stan": 5135,
      "evin": 5136,
      "icks": 5137,
      "arrival": 5138,
      "17th": 5139,
      "passeng": 5140,
      "promotion": 5141,
      "crossing": 5142,
      "billion": 5143,
      "treatment": 5144,
      "Imperial": 5145,
      "Martin": 5146,
      "Area": 5147,
      "800": 5148,
      "Ban": 5149,
      "Cre": 5150,
      "Hart": 5151,
      "Si": 5152,
      "Tu": 5153,
      "cation": 5154,
      "cust": 5155,
      "dan": 5156,
      "fare": 5157,
      "mic": 5158,
      "march": 5159,
      "males": 5160,
      "ote": 5161,
      "rig": 5162,
      "Theatre": 5163,
      "1914": 5164,
      "qual": 5165,
      "fox": 5166,
      "Chap": 5167,
      "roughly": 5168,
      "sses": 5169,
      "Cole": 5170,
      "decades": 5171,
      "protection": 5172,
      "lasted": 5173,
      "Steve": 5174,
      "finds": 5175,
      "introduction": 5176,
      "improved": 5177,
      "Applewhite": 5178,
      "Ath": 5179,
      "Cle": 5180,
      "Festival": 5181,
      "NBA": 5182,
      "Pan": 5183,
      "Rail": 5184,
      "Sky": 5185,
      "horses": 5186,
      "assu": 5187,
      "iced": 5188,
      "acres": 5189,
      "ented": 5190,
      "seat": 5191,
      "converted": 5192,
      "compr": 5193,
      "actress": 5194,
      "firm": 5195,
      "awa": 5196,
      "display": 5197,
      "crim": 5198,
      "filming": 5199,
      "parliament": 5200,
      "1946": 5201,
      "developing": 5202,
      "ification": 5203,
      "steel": 5204,
      "ashion": 5205,
      "planning": 5206,
      "Andy": 5207,
      "finding": 5208,
      "gradually": 5209,
      "accident": 5210,
      "possibility": 5211,
      "synthe": 5212,
      "1950s": 5213,
      "Commonwealth": 5214,
      "susp": 5215,
      "Throughout": 5216,
      "focused": 5217,
      "Athlet": 5218,
      "Greg": 5219,
      "Sund": 5220,
      "Ve": 5221,
      "mist": 5222,
      "ras": 5223,
      "intelligence": 5224,
      "nov": 5225,
      "presents": 5226,
      "centuries": 5227,
      "Anth": 5228,
      "Commit": 5229,
      "1971": 5230,
      "turning": 5231,
      "existing": 5232,
      "stopped": 5233,
      "multi": 5234,
      "adapt": 5235,
      "1930s": 5236,
      "WWE": 5237,
      "Production": 5238,
      "Summer": 5239,
      "philosop": 5240,
      "Development": 5241,
      "widespread": 5242,
      "Video": 5243,
      "94": 5244,
      "Bart": 5245,
      "FE": 5246,
      "Fall": 5247,
      "Gard": 5248,
      "NH": 5249,
      "eas": 5250,
      "knot": 5251,
      "rine": 5252,
      "stable": 5253,
      "begun": 5254,
      "lywood": 5255,
      "concrete": 5256,
      "cool": 5257,
      "neither": 5258,
      "guard": 5259,
      "producers": 5260,
      "viewed": 5261,
      "adding": 5262,
      "1980": 5263,
      "receiving": 5264,
      "servation": 5265,
      "restaur": 5266,
      "Max": 5267,
      "burns": 5268,
      "SAFE": 5269,
      "reinforce": 5270,
      "delivered": 5271,
      "pattern": 5272,
      "Upon": 5273,
      "Well": 5274,
      "egg": 5275,
      "von": 5276,
      "ange": 5277,
      "repl": 5278,
      "stret": 5279,
      "outer": 5280,
      "deities": 5281,
      "iring": 5282,
      "ressive": 5283,
      "prot": 5284,
      "assy": 5285,
      "computer": 5286,
      "render": 5287,
      "disc": 5288,
      "speech": 5289,
      "apping": 5290,
      "Arts": 5291,
      "osaurus": 5292,
      "12th": 5293,
      "memorial": 5294,
      "1975": 5295,
      "protect": 5296,
      "dominated": 5297,
      "breeding": 5298,
      "volume": 5299,
      "volunte": 5300,
      "Barrow": 5301,
      "tells": 5302,
      "females": 5303,
      "pitcher": 5304,
      "stock": 5305,
      "sculpture": 5306,
      "Lewis": 5307,
      "110": 5308,
      "Abu": 5309,
      "Men": 5310,
      "Nich": 5311,
      "save": 5312,
      "tend": 5313,
      "tree": 5314,
      "stro": 5315,
      "lythe": 5316,
      "moves": 5317,
      "astic": 5318,
      "acts": 5319,
      "anything": 5320,
      "What": 5321,
      "ologist": 5322,
      "clean": 5323,
      "organiz": 5324,
      "drawn": 5325,
      "suffer": 5326,
      "purpose": 5327,
      "ruled": 5328,
      "predict": 5329,
      "Magazine": 5330,
      "Cambodi": 5331,
      "independence": 5332,
      "colonial": 5333,
      "Turk": 5334,
      "escape": 5335,
      "vehicles": 5336,
      "accompanied": 5337,
      "61": 5338,
      "Band": 5339,
      "Nathan": 5340,
      "Ret": 5341,
      "sort": 5342,
      "wr": 5343,
      "wait": 5344,
      "rey": 5345,
      "revi": 5346,
      "recru": 5347,
      "ental": 5348,
      "convoy": 5349,
      "composition": 5350,
      "preci": 5351,
      "cricket": 5352,
      "news": 5353,
      "charges": 5354,
      "trying": 5355,
      "restling": 5356,
      "kills": 5357,
      "campus": 5358,
      "rivers": 5359,
      "Keats": 5360,
      "adapted": 5361,
      "Dougl": 5362,
      "paintings": 5363,
      "62": 5364,
      "8th": 5365,
      "98": 5366,
      "Ali": 5367,
      "Base": 5368,
      "Friend": 5369,
      "Mario": 5370,
      "Ni": 5371,
      "bought": 5372,
      "dance": 5373,
      "data": 5374,
      "glo": 5375,
      "hired": 5376,
      "nur": 5377,
      "pack": 5378,
      "iding": 5379,
      "umes": 5380,
      "visible": 5381,
      "160": 5382,
      "opera": 5383,
      "perior": 5384,
      "serves": 5385,
      "1966": 5386,
      "Juan": 5387,
      "humans": 5388,
      "combination": 5389,
      "crossed": 5390,
      "massive": 5391,
      "violence": 5392,
      "Belg": 5393,
      "junction": 5394,
      "69": 5395,
      "Oh": 5396,
      "ec": 5397,
      "fellow": 5398,
      "tav": 5399,
      "tail": 5400,
      "onna": 5401,
      "decre": 5402,
      "1916": 5403,
      "plain": 5404,
      "twel": 5405,
      "aved": 5406,
      "awn": 5407,
      "nothing": 5408,
      "underground": 5409,
      "angers": 5410,
      "End": 5411,
      "1945": 5412,
      "Brig": 5413,
      "Columb": 5414,
      "protected": 5415,
      "importance": 5416,
      "closely": 5417,
      "criticism": 5418,
      "Project": 5419,
      "survived": 5420,
      "existence": 5421,
      "namese": 5422,
      "Vietnamese": 5423,
      "learned": 5424,
      "reasons": 5425,
      "Premi": 5426,
      "silver": 5427,
      "Colonel": 5428,
      "MTV": 5429,
      "Ron": 5430,
      "crop": 5431,
      "fuel": 5432,
      "uj": 5433,
      "var": 5434,
      "isy": 5435,
      "convin": 5436,
      "1915": 5437,
      "perhaps": 5438,
      "intersection": 5439,
      "visual": 5440,
      "goes": 5441,
      "leaders": 5442,
      "1973": 5443,
      "1967": 5444,
      "Board": 5445,
      "Color": 5446,
      "involvement": 5447,
      "decline": 5448,
      "provides": 5449,
      "consists": 5450,
      "Songs": 5451,
      "borne": 5452,
      "surviv": 5453,
      "Islands": 5454,
      "distinct": 5455,
      "faith": 5456,
      "exclus": 5457,
      "Broad": 5458,
      "CE": 5459,
      "Dun": 5460,
      "Fish": 5461,
      "Ry": 5462,
      "Ten": 5463,
      "UTC": 5464,
      "bb": 5465,
      "dating": 5466,
      "hunt": 5467,
      "wins": 5468,
      "enge": 5469,
      "arian": 5470,
      "routes": 5471,
      "del": 5472,
      "constant": 5473,
      "ria": 5474,
      "ully": 5475,
      "Instead": 5476,
      "strateg": 5477,
      "acted": 5478,
      "airport": 5479,
      "Joe": 5480,
      "1974": 5481,
      "didn": 5482,
      "missing": 5483,
      "trip": 5484,
      "commanded": 5485,
      "storyline": 5486,
      "programs": 5487,
      "cougar": 5488,
      "rooms": 5489,
      "details": 5490,
      "Commander": 5491,
      "defined": 5492,
      "performing": 5493,
      "architect": 5494,
      "shooting": 5495,
      "enjoyed": 5496,
      "Committee": 5497,
      "3D": 5498,
      "66": 5499,
      "Bas": 5500,
      "Gir": 5501,
      "Mort": 5502,
      "Sat": 5503,
      "Sor": 5504,
      "cit": 5505,
      "cance": 5506,
      "uate": 5507,
      "esc": 5508,
      "items": 5509,
      "why": 5510,
      "1919": 5511,
      "Chart": 5512,
      "landed": 5513,
      "fictional": 5514,
      "prefer": 5515,
      "elled": 5516,
      "miner": 5517,
      "drama": 5518,
      "Lee": 5519,
      "mush": 5520,
      "longest": 5521,
      "1978": 5522,
      "azz": 5523,
      "evening": 5524,
      "1952": 5525,
      "consisting": 5526,
      "naissance": 5527,
      "surviving": 5528,
      "Walter": 5529,
      "archaeological": 5530,
      "Type": 5531,
      "Studios": 5532,
      "nucleus": 5533,
      "repeated": 5534,
      "athletes": 5535,
      "Sunday": 5536,
      "Douglas": 5537,
      "Cold": 5538,
      "Crown": 5539,
      "Haven": 5540,
      "Op": 5541,
      "Pho": 5542,
      "Ridge": 5543,
      "SB": 5544,
      "caught": 5545,
      "lap": 5546,
      "tack": 5547,
      "tip": 5548,
      "thor": 5549,
      "remix": 5550,
      "leaves": 5551,
      "modi": 5552,
      "exer": 5553,
      "Stadium": 5554,
      "attached": 5555,
      "forming": 5556,
      "interior": 5557,
      "covering": 5558,
      "decade": 5559,
      "1976": 5560,
      "Marines": 5561,
      "islands": 5562,
      "burg": 5563,
      "Golden": 5564,
      "deployed": 5565,
      "Nichol": 5566,
      "Han": 5567,
      "Hell": 5568,
      "Je": 5569,
      "Late": 5570,
      "Mic": 5571,
      "kin": 5572,
      "mast": 5573,
      "tall": 5574,
      "ture": 5575,
      "atop": 5576,
      "ardi": 5577,
      "accur": 5578,
      "sector": 5579,
      "ura": 5580,
      "convict": 5581,
      "usal": 5582,
      "aret": 5583,
      "renamed": 5584,
      "capac": 5585,
      "getting": 5586,
      "green": 5587,
      "sentence": 5588,
      "faces": 5589,
      "clubs": 5590,
      "Muslim": 5591,
      "settlers": 5592,
      "Daniel": 5593,
      "opportunity": 5594,
      "dissipated": 5595,
      "permanent": 5596,
      "Thunderbirds": 5597,
      "Shortly": 5598,
      "Turkish": 5599,
      "85": 5600,
      "Bor": 5601,
      "Domin": 5602,
      "Jes": 5603,
      "Ken": 5604,
      "Kir": 5605,
      "Sus": 5606,
      "bass": 5607,
      "fashion": 5608,
      "nic": 5609,
      "py": 5610,
      "rural": 5611,
      "inspir": 5612,
      "editor": 5613,
      "edding": 5614,
      "iled": 5615,
      "deck": 5616,
      "1917": 5617,
      "aine": 5618,
      "opposition": 5619,
      "illo": 5620,
      "intend": 5621,
      "guan": 5622,
      "preced": 5623,
      "interchange": 5624,
      "osaur": 5625,
      "substant": 5626,
      "1979": 5627,
      "Bru": 5628,
      "Boise": 5629,
      "skin": 5630,
      "motion": 5631,
      "Braz": 5632,
      "credited": 5633,
      "digital": 5634,
      "pilot": 5635,
      "secure": 5636,
      "populations": 5637,
      "250": 5638,
      "Hung": 5639,
      "cake": 5640,
      "knew": 5641,
      "mble": 5642,
      "univers": 5643,
      "aling": 5644,
      "conspir": 5645,
      "supposed": 5646,
      "locations": 5647,
      "derived": 5648,
      "helic": 5649,
      "invited": 5650,
      "strip": 5651,
      "imeter": 5652,
      "1936": 5653,
      "churches": 5654,
      "providing": 5655,
      "association": 5656,
      "establishment": 5657,
      "Emperor": 5658,
      "satis": 5659,
      "ategory": 5660,
      "committee": 5661,
      "cruiser": 5662,
      "administration": 5663,
      "convection": 5664,
      "Additionally": 5665,
      "Crazy": 5666,
      "protagon": 5667,
      "Premier": 5668,
      "71": 5669,
      "72": 5670,
      "81": 5671,
      "Bono": 5672,
      "Cub": 5673,
      "Fer": 5674,
      "fal": 5675,
      "mine": 5676,
      "nie": 5677,
      "sens": 5678,
      "wish": 5679,
      "youth": 5680,
      "inem": 5681,
      "infr": 5682,
      "atures": 5683,
      "acher": 5684,
      "conference": 5685,
      "ctors": 5686,
      "ulate": 5687,
      "shared": 5688,
      "ighter": 5689,
      "firing": 5690,
      "compon": 5691,
      "noon": 5692,
      "finishing": 5693,
      "speaking": 5694,
      "16th": 5695,
      "1982": 5696,
      "1948": 5697,
      "Marsh": 5698,
      "willing": 5699,
      "joint": 5700,
      "Space": 5701,
      "Within": 5702,
      "Science": 5703,
      "greatly": 5704,
      "glass": 5705,
      "coastal": 5706,
      "session": 5707,
      "About": 5708,
      "Donald": 5709,
      "depicted": 5710,
      "dynasty": 5711,
      "economy": 5712,
      "Hollywood": 5713,
      "reserve": 5714,
      "applied": 5715,
      "succeeded": 5716,
      "regarding": 5717,
      "Director": 5718,
      "replacement": 5719,
      "article": 5720,
      "knots": 5721,
      "Age": 5722,
      "Chel": 5723,
      "Sound": 5724,
      "Santa": 5725,
      "Wind": 5726,
      "kno": 5727,
      "rab": 5728,
      "table": 5729,
      "tied": 5730,
      "zone": 5731,
      "reput": 5732,
      "entially": 5733,
      "idges": 5734,
      "divisions": 5735,
      "antimony": 5736,
      "Chief": 5737,
      "worship": 5738,
      "eving": 5739,
      "dram": 5740,
      "producing": 5741,
      "myth": 5742,
      "ropium": 5743,
      "remainder": 5744,
      "successor": 5745,
      "stones": 5746,
      "certified": 5747,
      "considerable": 5748,
      "acquired": 5749,
      "Military": 5750,
      "benef": 5751,
      "Colorado": 5752,
      "59": 5753,
      "Blythe": 5754,
      "CD": 5755,
      "Dar": 5756,
      "Dubl": 5757,
      "GN": 5758,
      "Iron": 5759,
      "IGN": 5760,
      "Jain": 5761,
      "Jones": 5762,
      "Rick": 5763,
      "bbe": 5764,
      "bone": 5765,
      "mere": 5766,
      "mate": 5767,
      "replace": 5768,
      "itan": 5769,
      "itors": 5770,
      "rout": 5771,
      "amber": 5772,
      "forcing": 5773,
      "ager": 5774,
      "mos": 5775,
      "shop": 5776,
      "uble": 5777,
      "dry": 5778,
      "eleven": 5779,
      "Attor": 5780,
      "anny": 5781,
      "receive": 5782,
      "1963": 5783,
      "towns": 5784,
      "rug": 5785,
      "Life": 5786,
      "Charlie": 5787,
      "entering": 5788,
      "historians": 5789,
      "looked": 5790,
      "baseball": 5791,
      "Butler": 5792,
      "Doctor": 5793,
      "concerns": 5794,
      "Anthony": 5795,
      "Brazil": 5796,
      "helicop": 5797,
      "Dublin": 5798,
      "Attorney": 5799,
      "52": 5800,
      "Hy": 5801,
      "Ira": 5802,
      "lit": 5803,
      "races": 5804,
      "stances": 5805,
      "accompl": 5806,
      "udd": 5807,
      "neck": 5808,
      "weigh": 5809,
      "Sha": 5810,
      "sequently": 5811,
      "facing": 5812,
      "correct": 5813,
      "technology": 5814,
      "assistance": 5815,
      "funding": 5816,
      "Evita": 5817,
      "achieve": 5818,
      "happy": 5819,
      "Croatian": 5820,
      "Howard": 5821,
      "Brian": 5822,
      "Raf": 5823,
      "aer": 5824,
      "dim": 5825,
      "nav": 5826,
      "sn": 5827,
      "āda": 5828,
      "stal": 5829,
      "store": 5830,
      "arranged": 5831,
      "lease": 5832,
      "comic": 5833,
      "aste": 5834,
      "spons": 5835,
      "scar": 5836,
      "appearing": 5837,
      "storms": 5838,
      "attacking": 5839,
      "Maria": 5840,
      "tries": 5841,
      "breaking": 5842,
      "authors": 5843,
      "imental": 5844,
      "Liber": 5845,
      "flights": 5846,
      "chapel": 5847,
      "scholars": 5848,
      "Jamal": 5849,
      "symbol": 5850,
      "chorus": 5851,
      "ánh": 5852,
      "Khánh": 5853,
      "Bre": 5854,
      "Gil": 5855,
      "Jurch": 5856,
      "Low": 5857,
      "Master": 5858,
      "cot": 5859,
      "hall": 5860,
      "vary": 5861,
      "yson": 5862,
      "ancy": 5863,
      "acre": 5864,
      "umed": 5865,
      "Heavy": 5866,
      "meets": 5867,
      "weet": 5868,
      "Alan": 5869,
      "Who": 5870,
      "10th": 5871,
      "ropol": 5872,
      "Leon": 5873,
      "foundation": 5874,
      "downtown": 5875,
      "download": 5876,
      "leads": 5877,
      "label": 5878,
      "characteristics": 5879,
      "1953": 5880,
      "denied": 5881,
      "Point": 5882,
      "Similar": 5883,
      "technical": 5884,
      "teeth": 5885,
      "watched": 5886,
      "literary": 5887,
      "MacLe": 5888,
      "controversi": 5889,
      "controversy": 5890,
      "Tennyson": 5891,
      "Alexander": 5892,
      "ranean": 5893,
      "opinion": 5894,
      "occasionally": 5895,
      "Jun": 5896,
      "Oreg": 5897,
      "Sm": 5898,
      "Test": 5899,
      "Wall": 5900,
      "iation": 5901,
      "til": 5902,
      "ued": 5903,
      "andy": 5904,
      "acid": 5905,
      "oms": 5906,
      "1913": 5907,
      "resour": 5908,
      "Ind": 5909,
      "truth": 5910,
      "aked": 5911,
      "odon": 5912,
      "assador": 5913,
      "typhoon": 5914,
      "transit": 5915,
      "showing": 5916,
      "valley": 5917,
      "politics": 5918,
      "typical": 5919,
      "prede": 5920,
      "terminus": 5921,
      "auti": 5922,
      "strengthen": 5923,
      "chapter": 5924,
      "examples": 5925,
      "journey": 5926,
      "Transport": 5927,
      "Radio": 5928,
      "capacity": 5929,
      "Iraq": 5930,
      "Oregon": 5931,
      "Ari": 5932,
      "Free": 5933,
      "Nat": 5934,
      "RE": 5935,
      "Will": 5936,
      "franch": 5937,
      "hur": 5938,
      "iqu": 5939,
      "none": 5940,
      "ta": 5941,
      "ua": 5942,
      "vac": 5943,
      "wise": 5944,
      "edom": 5945,
      "ilton": 5946,
      "channel": 5947,
      "immigr": 5948,
      "ays": 5949,
      "ried": 5950,
      "1900": 5951,
      "etic": 5952,
      "sud": 5953,
      "abour": 5954,
      "ateur": 5955,
      "exact": 5956,
      "dub": 5957,
      "aug": 5958,
      "ansion": 5959,
      "ampions": 5960,
      "crash": 5961,
      "shel": 5962,
      "sons": 5963,
      "drug": 5964,
      "vote": 5965,
      "11th": 5966,
      "appropri": 5967,
      "generation": 5968,
      "plane": 5969,
      "Liu": 5970,
      "references": 5971,
      "everything": 5972,
      "Simon": 5973,
      "Simone": 5974,
      "regularly": 5975,
      "responsibility": 5976,
      "habitat": 5977,
      "powers": 5978,
      "portrayed": 5979,
      "safety": 5980,
      "split": 5981,
      "Homer": 5982,
      "sufficient": 5983,
      "Admiral": 5984,
      "Columbia": 5985,
      "reputation": 5986,
      "77": 5987,
      "Hon": 5988,
      "Kang": 5989,
      "hits": 5990,
      "kings": 5991,
      "page": 5992,
      "sun": 5993,
      "remo": 5994,
      "recovered": 5995,
      "itled": 5996,
      "agents": 5997,
      "oting": 5998,
      "apers": 5999,
      "lide": 6000,
      "liked": 6001,
      "expect": 6002,
      "eman": 6003,
      "emor": 6004,
      "ameter": 6005,
      "quite": 6006,
      "iston": 6007,
      "noting": 6008,
      "udes": 6009,
      "oked": 6010,
      "oking": 6011,
      "commemor": 6012,
      "pregn": 6013,
      "crime": 6014,
      "dock": 6015,
      "gameplay": 6016,
      "someone": 6017,
      "offers": 6018,
      "suppor": 6019,
      "controll": 6020,
      "approved": 6021,
      "Gram": 6022,
      "correspond": 6023,
      "seeing": 6024,
      "destroyers": 6025,
      "measures": 6026,
      "detail": 6027,
      "Depression": 6028,
      "blocks": 6029,
      "specifically": 6030,
      "embassy": 6031,
      "discovery": 6032,
      "thousands": 6033,
      "attributed": 6034,
      "Freder": 6035,
      "Cari": 6036,
      "Les": 6037,
      "Row": 6038,
      "Rod": 6039,
      "Uly": 6040,
      "squad": 6041,
      "inity": 6042,
      "aced": 6043,
      "imb": 6044,
      "terior": 6045,
      "agle": 6046,
      "teor": 6047,
      "plants": 6048,
      "Chains": 6049,
      "worst": 6050,
      "forests": 6051,
      "charter": 6052,
      "1949": 6053,
      "Marl": 6054,
      "continuing": 6055,
      "defended": 6056,
      "solid": 6057,
      "Loren": 6058,
      "1951": 6059,
      "1956": 6060,
      "Perry": 6061,
      "younger": 6062,
      "competitions": 6063,
      "occurs": 6064,
      "recognition": 6065,
      "separated": 6066,
      "discussed": 6067,
      "Hugh": 6068,
      "department": 6069,
      "cruisers": 6070,
      "carrying": 6071,
      "vessels": 6072,
      "bbean": 6073,
      "MacLeod": 6074,
      "Caribbean": 6075,
      "Ulysses": 6076,
      "Aer": 6077,
      "Daily": 6078,
      "Hard": 6079,
      "Mod": 6080,
      "OT": 6081,
      "Person": 6082,
      "Vill": 6083,
      "fitted": 6084,
      "wart": 6085,
      "inte": 6086,
      "inhabit": 6087,
      "institut": 6088,
      "isions": 6089,
      "beth": 6090,
      "deed": 6091,
      "agree": 6092,
      "erected": 6093,
      "dies": 6094,
      "cloud": 6095,
      "ardo": 6096,
      "pty": 6097,
      "committed": 6098,
      "ulture": 6099,
      "dismissed": 6100,
      "izes": 6101,
      "symp": 6102,
      "rows": 6103,
      "Moz": 6104,
      "covers": 6105,
      "describing": 6106,
      "sequences": 6107,
      "priest": 6108,
      "penalty": 6109,
      "studied": 6110,
      "sky": 6111,
      "rules": 6112,
      "difficulty": 6113,
      "Duke": 6114,
      "approached": 6115,
      "electric": 6116,
      "alternative": 6117,
      "Jersey": 6118,
      "indicate": 6119,
      "Senate": 6120,
      "earthquake": 6121,
      "Critical": 6122,
      "Historic": 6123,
      "opponents": 6124,
      "Secretary": 6125,
      "Jeff": 6126,
      "icipal": 6127,
      "predecess": 6128,
      "79": 6129,
      "Around": 6130,
      "Aston": 6131,
      "DNA": 6132,
      "Edu": 6133,
      "Iguan": 6134,
      "Lin": 6135,
      "MA": 6136,
      "Nick": 6137,
      "Pet": 6138,
      "Rel": 6139,
      "Sports": 6140,
      "iers": 6141,
      "theatre": 6142,
      "assemb": 6143,
      "oul": 6144,
      "amy": 6145,
      "rian": 6146,
      "pled": 6147,
      "plum": 6148,
      "moder": 6149,
      "earch": 6150,
      "Init": 6151,
      "sized": 6152,
      "astron": 6153,
      "creator": 6154,
      "cki": 6155,
      "Rox": 6156,
      "Albert": 6157,
      "Recording": 6158,
      "1983": 6159,
      "designation": 6160,
      "Forces": 6161,
      "winner": 6162,
      "grapher": 6163,
      "Stephen": 6164,
      "attempting": 6165,
      "basin": 6166,
      "basic": 6167,
      "crosses": 6168,
      "hosted": 6169,
      "accused": 6170,
      "brothers": 6171,
      "Olympics": 6172,
      "biography": 6173,
      "methods": 6174,
      "Special": 6175,
      "picked": 6176,
      "instrument": 6177,
      "recommended": 6178,
      "revolution": 6179,
      "duties": 6180,
      "ceremony": 6181,
      "academic": 6182,
      "organizations": 6183,
      "sudden": 6184,
      "82": 6185,
      "Gar": 6186,
      "Jay": 6187,
      "Pagan": 6188,
      "Rio": 6189,
      "Sub": 6190,
      "Spring": 6191,
      "Ye": 6192,
      "zon": 6193,
      "ía": 6194,
      "atus": 6195,
      "ena": 6196,
      "entry": 6197,
      "uration": 6198,
      "ceived": 6199,
      "exception": 6200,
      "affect": 6201,
      "formal": 6202,
      "desire": 6203,
      "gross": 6204,
      "retained": 6205,
      "regime": 6206,
      "frig": 6207,
      "surg": 6208,
      "leadership": 6209,
      "1961": 6210,
      "starred": 6211,
      "statement": 6212,
      "chemical": 6213,
      "reality": 6214,
      "strongly": 6215,
      "charts": 6216,
      "interested": 6217,
      "Somal": 6218,
      "honour": 6219,
      "believes": 6220,
      "secured": 6221,
      "favorite": 6222,
      "emerged": 6223,
      "challenge": 6224,
      "Georgian": 6225,
      "dollars": 6226,
      "extremely": 6227,
      "Francisco": 6228,
      "Television": 6229,
      "Simpsons": 6230,
      "battleships": 6231,
      "eighth": 6232,
      "Fantasy": 6233,
      "isolated": 6234,
      "Cardinal": 6235,
      "atmosphere": 6236,
      "Chelsea": 6237,
      "AML": 6238,
      "Dota": 6239,
      "Fame": 6240,
      "Here": 6241,
      "Mu": 6242,
      "Ode": 6243,
      "Ray": 6244,
      "U2": 6245,
      "cab": 6246,
      "fine": 6247,
      "fold": 6248,
      "gone": 6249,
      "ki": 6250,
      "sight": 6251,
      "wedding": 6252,
      "inland": 6253,
      "unusual": 6254,
      "itage": 6255,
      "sects": 6256,
      "imet": 6257,
      "concer": 6258,
      "agues": 6259,
      "apt": 6260,
      "superior": 6261,
      "province": 6262,
      "diameter": 6263,
      "lock": 6264,
      "manner": 6265,
      "fee": 6266,
      "attle": 6267,
      "aws": 6268,
      "intention": 6269,
      "poses": 6270,
      "afternoon": 6271,
      "Anonymous": 6272,
      "phone": 6273,
      "operating": 6274,
      "ennon": 6275,
      "stands": 6276,
      "Order": 6277,
      "Off": 6278,
      "painted": 6279,
      "Hospital": 6280,
      "patron": 6281,
      "assistant": 6282,
      "accounts": 6283,
      "Cambridge": 6284,
      "equipped": 6285,
      "bringing": 6286,
      "rarely": 6287,
      "Patrick": 6288,
      "Memorial": 6289,
      "safe": 6290,
      "principal": 6291,
      "ironclads": 6292,
      "thirty": 6293,
      "neighbor": 6294,
      "intensified": 6295,
      "Hornung": 6296,
      "Modern": 6297,
      "89": 6298,
      "BS": 6299,
      "Bell": 6300,
      "Cru": 6301,
      "Ele": 6302,
      "Hal": 6303,
      "Hindu": 6304,
      "Pers": 6305,
      "Sara": 6306,
      "Top": 6307,
      "WA": 6308,
      "WC": 6309,
      "Wy": 6310,
      "crown": 6311,
      "gers": 6312,
      "kins": 6313,
      "lings": 6314,
      "inscri": 6315,
      "eda": 6316,
      "hear": 6317,
      "summ": 6318,
      "shots": 6319,
      "grave": 6320,
      "disci": 6321,
      "prey": 6322,
      "regional": 6323,
      "annivers": 6324,
      "operate": 6325,
      "passage": 6326,
      "tribes": 6327,
      "carved": 6328,
      "camps": 6329,
      "reviewer": 6330,
      "Maeda": 6331,
      "changing": 6332,
      "Romani": 6333,
      "Mountains": 6334,
      "Holy": 6335,
      "Hamilton": 6336,
      "Nether": 6337,
      "Madonna": 6338,
      "persist": 6339,
      "Brook": 6340,
      "teaching": 6341,
      "incorporated": 6342,
      "rhyth": 6343,
      "obtained": 6344,
      "Engineer": 6345,
      "Haiti": 6346,
      "Writing": 6347,
      "nomination": 6348,
      "victims": 6349,
      "expedition": 6350,
      "Constantine": 6351,
      "Hibari": 6352,
      "integr": 6353,
      "anniversary": 6354,
      "Bern": 6355,
      "DA": 6356,
      "EC": 6357,
      "Qedar": 6358,
      "Run": 6359,
      "Rangers": 6360,
      "Wi": 6361,
      "iro": 6362,
      "mut": 6363,
      "math": 6364,
      "ost": 6365,
      "uset": 6366,
      "ining": 6367,
      "inger": 6368,
      "lected": 6369,
      "bels": 6370,
      "veget": 6371,
      "tra": 6372,
      "loan": 6373,
      "achuset": 6374,
      "partly": 6375,
      "spacing": 6376,
      "prec": 6377,
      "bra": 6378,
      "amphib": 6379,
      "indicated": 6380,
      "transition": 6381,
      "Beach": 6382,
      "Works": 6383,
      "legs": 6384,
      "Track": 6385,
      "generated": 6386,
      "classes": 6387,
      "Prime": 6388,
      "affair": 6389,
      "glades": 6390,
      "medieval": 6391,
      "ruli": 6392,
      "Township": 6393,
      "immediate": 6394,
      "Brien": 6395,
      "attracted": 6396,
      "pushed": 6397,
      "Industry": 6398,
      "mobile": 6399,
      "Peninsula": 6400,
      "Massachuset": 6401,
      "remnants": 6402,
      "passengers": 6403,
      "Friends": 6404,
      "Phoen": 6405,
      "Massachusetts": 6406,
      "63": 6407,
      "Cape": 6408,
      "Jenn": 6409,
      "Your": 6410,
      "bond": 6411,
      "jack": 6412,
      "jump": 6413,
      "inning": 6414,
      "income": 6415,
      "theat": 6416,
      "sta": 6417,
      "igation": 6418,
      "owed": 6419,
      "commod": 6420,
      "proceed": 6421,
      "trail": 6422,
      "ureau": 6423,
      "evo": 6424,
      "parties": 6425,
      "Anton": 6426,
      "Roger": 6427,
      "Unlike": 6428,
      "flat": 6429,
      "whereas": 6430,
      "frame": 6431,
      "numbered": 6432,
      "pointed": 6433,
      "hotel": 6434,
      "ensus": 6435,
      "1977": 6436,
      "cycle": 6437,
      "13th": 6438,
      "defences": 6439,
      "Plot": 6440,
      "industrial": 6441,
      "Starr": 6442,
      "Singles": 6443,
      "Archae": 6444,
      "demol": 6445,
      "Oslo": 6446,
      "Weekly": 6447,
      "Venus": 6448,
      "Independent": 6449,
      "reconnaissance": 6450,
      "survivors": 6451,
      "112": 6452,
      "DS": 6453,
      "Dod": 6454,
      "Fu": 6455,
      "Fire": 6456,
      "Hit": 6457,
      "VN": 6458,
      "bom": 6459,
      "baby": 6460,
      "fant": 6461,
      "gi": 6462,
      "nell": 6463,
      "puzz": 6464,
      "vor": 6465,
      "aded": 6466,
      "admitted": 6467,
      "select": 6468,
      "irs": 6469,
      "withdrew": 6470,
      "1910": 6471,
      "resent": 6472,
      "apart": 6473,
      "abled": 6474,
      "pete": 6475,
      "acknow": 6476,
      "istered": 6477,
      "untain": 6478,
      "partial": 6479,
      "sche": 6480,
      "fled": 6481,
      "retire": 6482,
      "ublican": 6483,
      "Review": 6484,
      "offense": 6485,
      "covery": 6486,
      "warm": 6487,
      "completion": 6488,
      "erald": 6489,
      "returns": 6490,
      "promote": 6491,
      "falling": 6492,
      "1955": 6493,
      "1937": 6494,
      "communities": 6495,
      "iterranean": 6496,
      "Hotel": 6497,
      "connection": 6498,
      "driving": 6499,
      "Republican": 6500,
      "civilian": 6501,
      "learn": 6502,
      "seemed": 6503,
      "Mediterranean": 6504,
      "Queens": 6505,
      "feeling": 6506,
      "Bradford": 6507,
      "rupt": 6508,
      "distribution": 6509,
      "rescue": 6510,
      "Samuel": 6511,
      "arrested": 6512,
      "arrangement": 6513,
      "Rolling": 6514,
      "suffering": 6515,
      "twelve": 6516,
      "Frederick": 6517,
      "Iguanodon": 6518,
      "Det": 6519,
      "Kurt": 6520,
      "NBC": 6521,
      "SS": 6522,
      "Vol": 6523,
      "nick": 6524,
      "ninth": 6525,
      "sul": 6526,
      "resemb": 6527,
      "orter": 6528,
      "adj": 6529,
      "ading": 6530,
      "plate": 6531,
      "emotional": 6532,
      "ender": 6533,
      "Chan": 6534,
      "assess": 6535,
      "ultane": 6536,
      "braltar": 6537,
      "shear": 6538,
      "indig": 6539,
      "colog": 6540,
      "angerous": 6541,
      "followers": 6542,
      "hore": 6543,
      "signing": 6544,
      "Carl": 6545,
      "grounds": 6546,
      "Descri": 6547,
      "equival": 6548,
      "expansion": 6549,
      "closer": 6550,
      "Montana": 6551,
      "Morrison": 6552,
      "threatened": 6553,
      "Maryland": 6554,
      "Jerusal": 6555,
      "Research": 6556,
      "Gibraltar": 6557,
      "Gully": 6558,
      "drums": 6559,
      "Everglades": 6560,
      "specimens": 6561,
      "installed": 6562,
      "parallel": 6563,
      "custom": 6564,
      "mushroom": 6565,
      "rugby": 6566,
      "Lorenzo": 6567,
      "Roxas": 6568,
      "Jerusalem": 6569,
      "Net": 6570,
      "Patt": 6571,
      "cinem": 6572,
      "jum": 6573,
      "mally": 6574,
      "orer": 6575,
      "encies": 6576,
      "1927": 6577,
      "Chronic": 6578,
      "asser": 6579,
      "intense": 6580,
      "noisy": 6581,
      "cessive": 6582,
      "brand": 6583,
      "monuments": 6584,
      "somewhat": 6585,
      "cript": 6586,
      "Maya": 6587,
      "attered": 6588,
      "1954": 6589,
      "1938": 6590,
      "classical": 6591,
      "magn": 6592,
      "Eddie": 6593,
      "employe": 6594,
      "Somali": 6595,
      "ucky": 6596,
      "contribut": 6597,
      "circum": 6598,
      "circulation": 6599,
      "treaty": 6600,
      "embark": 6601,
      "platform": 6602,
      "Georgia": 6603,
      "Adams": 6604,
      "assumed": 6605,
      "easily": 6606,
      "eggs": 6607,
      "escort": 6608,
      "ardian": 6609,
      "58": 6610,
      "Corn": 6611,
      "Gab": 6612,
      "Less": 6613,
      "Nintend": 6614,
      "Pope": 6615,
      "Sap": 6616,
      "gé": 6617,
      "mature": 6618,
      "oon": 6619,
      "san": 6620,
      "tone": 6621,
      "taught": 6622,
      "uous": 6623,
      "onica": 6624,
      "aton": 6625,
      "advoc": 6626,
      "destruction": 6627,
      "teacher": 6628,
      "lik": 6629,
      "soil": 6630,
      "overw": 6631,
      "Story": 6632,
      "auto": 6633,
      "Josh": 6634,
      "offman": 6635,
      "1962": 6636,
      "hydro": 6637,
      "Truj": 6638,
      "drawing": 6639,
      "involving": 6640,
      "posted": 6641,
      "Angle": 6642,
      "graphics": 6643,
      "novels": 6644,
      "driven": 6645,
      "motor": 6646,
      "surrounded": 6647,
      "Territ": 6648,
      "debate": 6649,
      "documentary": 6650,
      "shells": 6651,
      "camera": 6652,
      "controversial": 6653,
      "franchise": 6654,
      "institutions": 6655,
      "Mozamb": 6656,
      "Nintendo": 6657,
      "Trujillo": 6658,
      "Flight": 6659,
      "Kr": 6660,
      "Snow": 6661,
      "Square": 6662,
      "Tro": 6663,
      "bones": 6664,
      "ju": 6665,
      "voted": 6666,
      "zer": 6667,
      "instru": 6668,
      "unsuccessful": 6669,
      "stadium": 6670,
      "ione": 6671,
      "cher": 6672,
      "deem": 6673,
      "implement": 6674,
      "expen": 6675,
      "estate": 6676,
      "pton": 6677,
      "Third": 6678,
      "Aniston": 6679,
      "minister": 6680,
      "Show": 6681,
      "courts": 6682,
      "organised": 6683,
      "sequel": 6684,
      "Stefan": 6685,
      "Christop": 6686,
      "1958": 6687,
      "Miss": 6688,
      "Harry": 6689,
      "relationships": 6690,
      "existed": 6691,
      "stayed": 6692,
      "territories": 6693,
      "error": 6694,
      "badly": 6695,
      "purchase": 6696,
      "alogue": 6697,
      "candidate": 6698,
      "Rhodesian": 6699,
      "Eliza": 6700,
      "Argentina": 6701,
      "submarine": 6702,
      "fungus": 6703,
      "restaurant": 6704,
      "wrong": 6705,
      "pyram": 6706,
      "concerts": 6707,
      "expensive": 6708,
      "57": 6709,
      "Danny": 6710,
      "Fron": 6711,
      "ISB": 6712,
      "Ko": 6713,
      "Kil": 6714,
      "Lennon": 6715,
      "Mel": 6716,
      "Sonic": 6717,
      "map": 6718,
      "pse": 6719,
      "uct": 6720,
      "wine": 6721,
      "wants": 6722,
      "recalled": 6723,
      "entitled": 6724,
      "ammun": 6725,
      "lyn": 6726,
      "elder": 6727,
      "astru": 6728,
      "kee": 6729,
      "partially": 6730,
      "monarch": 6731,
      "Real": 6732,
      "ifying": 6733,
      "survey": 6734,
      "barr": 6735,
      "settled": 6736,
      "traveled": 6737,
      "moral": 6738,
      "reduce": 6739,
      "Activision": 6740,
      "Korea": 6741,
      "railway": 6742,
      "bella": 6743,
      "concerned": 6744,
      "extension": 6745,
      "linked": 6746,
      "hoped": 6747,
      "distributed": 6748,
      "preserved": 6749,
      "Castle": 6750,
      "message": 6751,
      "Isabella": 6752,
      "Lisa": 6753,
      "ISBN": 6754,
      "ammunition": 6755,
      "88": 6756,
      "Key": 6757,
      "Mul": 6758,
      "Naval": 6759,
      "Owen": 6760,
      "Tower": 6761,
      "Vo": 6762,
      "Xe": 6763,
      "Yu": 6764,
      "ba": 6765,
      "ege": 6766,
      "hat": 6767,
      "jazz": 6768,
      "mud": 6769,
      "ocean": 6770,
      "arg": 6771,
      "esh": 6772,
      "enters": 6773,
      "ads": 6774,
      "depos": 6775,
      "romantic": 6776,
      "stration": 6777,
      "upgraded": 6778,
      "scape": 6779,
      "genre": 6780,
      "Death": 6781,
      "Construction": 6782,
      "designs": 6783,
      "aza": 6784,
      "Carter": 6785,
      "Germans": 6786,
      "Plunk": 6787,
      "armour": 6788,
      "1959": 6789,
      "effectively": 6790,
      "footage": 6791,
      "equal": 6792,
      "istry": 6793,
      "programme": 6794,
      "skull": 6795,
      "treated": 6796,
      "injured": 6797,
      "engineering": 6798,
      "Player": 6799,
      "investigation": 6800,
      "possession": 6801,
      "ratings": 6802,
      "divine": 6803,
      "photograph": 6804,
      "Human": 6805,
      "aggressive": 6806,
      "1920s": 6807,
      "Calvert": 6808,
      "resources": 6809,
      "autiful": 6810,
      "67": 6811,
      "Dom": 6812,
      "Kansas": 6813,
      "Mun": 6814,
      "Plan": 6815,
      "bay": 6816,
      "ckey": 6817,
      "gall": 6818,
      "haust": 6819,
      "jevo": 6820,
      "ni": 6821,
      "uff": 6822,
      "zen": 6823,
      "thetic": 6824,
      "orche": 6825,
      "stance": 6826,
      "iser": 6827,
      "ician": 6828,
      "hem": 6829,
      "bearing": 6830,
      "degre": 6831,
      "cong": 6832,
      "ider": 6833,
      "iday": 6834,
      "oty": 6835,
      "aints": 6836,
      "exhaust": 6837,
      "essential": 6838,
      "afts": 6839,
      "itsune": 6840,
      "owner": 6841,
      "overseas": 6842,
      "formally": 6843,
      "normally": 6844,
      "products": 6845,
      "Where": 6846,
      "ift": 6847,
      "15th": 6848,
      "identity": 6849,
      "engines": 6850,
      "Beauty": 6851,
      "140": 6852,
      "cars": 6853,
      "inking": 6854,
      "protests": 6855,
      "reviewers": 6856,
      "refers": 6857,
      "classic": 6858,
      "limit": 6859,
      "victories": 6860,
      "streets": 6861,
      "meetings": 6862,
      "funds": 6863,
      "Strand": 6864,
      "Prior": 6865,
      "colonies": 6866,
      "absor": 6867,
      "wearing": 6868,
      "apparently": 6869,
      "elsewhere": 6870,
      "resistance": 6871,
      "agricultural": 6872,
      "micro": 6873,
      "Ryan": 6874,
      "citiz": 6875,
      "Jean": 6876,
      "astronom": 6877,
      "Somalia": 6878,
      "Sarajevo": 6879,
      "Netherlands": 6880,
      "degrees": 6881,
      "68": 6882,
      "74": 6883,
      "Glo": 6884,
      "Vice": 6885,
      "Yank": 6886,
      "hope": 6887,
      "mart": 6888,
      "oz": 6889,
      "oke": 6890,
      "psy": 6891,
      "oration": 6892,
      "itated": 6893,
      "leep": 6894,
      "amateur": 6895,
      "impossible": 6896,
      "exposed": 6897,
      "lose": 6898,
      "lowest": 6899,
      "spit": 6900,
      "scr": 6901,
      "interpret": 6902,
      "gene": 6903,
      "medium": 6904,
      "Norman": 6905,
      "ifications": 6906,
      "videos": 6907,
      "armored": 6908,
      "claiming": 6909,
      "sessions": 6910,
      "reveals": 6911,
      "detailed": 6912,
      "learning": 6913,
      "Veronica": 6914,
      "printed": 6915,
      "perspect": 6916,
      "absence": 6917,
      "rendered": 6918,
      "fixed": 6919,
      "Destiny": 6920,
      "Stanley": 6921,
      "modified": 6922,
      "inspiration": 6923,
      "equivalent": 6924,
      "Yankovic": 6925,
      "CR": 6926,
      "Jere": 6927,
      "Pict": 6928,
      "Power": 6929,
      "Rug": 6930,
      "Tel": 6931,
      "Yan": 6932,
      "cold": 6933,
      "pine": 6934,
      "rates": 6935,
      "wet": 6936,
      "intr": 6937,
      "insist": 6938,
      "remark": 6939,
      "stic": 6940,
      "alph": 6941,
      "lets": 6942,
      "accommod": 6943,
      "sees": 6944,
      "context": 6945,
      "1929": 6946,
      "util": 6947,
      "provin": 6948,
      "exchange": 6949,
      "fection": 6950,
      "serial": 6951,
      "afterwards": 6952,
      "renew": 6953,
      "answ": 6954,
      "westward": 6955,
      "offices": 6956,
      "Islam": 6957,
      "tribute": 6958,
      "carbon": 6959,
      "asks": 6960,
      "1935": 6961,
      "streak": 6962,
      "burned": 6963,
      "languages": 6964,
      "practices": 6965,
      "transportation": 6966,
      "stationed": 6967,
      "selection": 6968,
      "requested": 6969,
      "Victorian": 6970,
      "joining": 6971,
      "adults": 6972,
      "restored": 6973,
      "alleged": 6974,
      "encouraged": 6975,
      "Democratic": 6976,
      "opposite": 6977,
      "Clarkson": 6978,
      "occasions": 6979,
      "protagonist": 6980,
      "inhabitants": 6981,
      "Front": 6982,
      "Rugby": 6983,
      "AR": 6984,
      "Amb": 6985,
      "Fern": 6986,
      "Federal": 6987,
      "Jif": 6988,
      "Kel": 6989,
      "Mit": 6990,
      "Pul": 6991,
      "Wat": 6992,
      "aud": 6993,
      "faster": 6994,
      "gor": 6995,
      "lake": 6996,
      "tie": 6997,
      "wich": 6998,
      "yo": 6999,
      "anth": 7000,
      "online": 7001,
      "ingale": 7002,
      "heavi": 7003,
      "acent": 7004,
      "accompany": 7005,
      "beam": 7006,
      "1911": 7007,
      "1921": 7008,
      "poly": 7009,
      "poser": 7010,
      "trained": 7011,
      "spur": 7012,
      "merch": 7013,
      "product": 7014,
      "releg": 7015,
      "consult": 7016,
      "legend": 7017,
      "reading": 7018,
      "standards": 7019,
      "Wilde": 7020,
      "rounds": 7021,
      "rising": 7022,
      "1932": 7023,
      "suggesting": 7024,
      "youngest": 7025,
      "laws": 7026,
      "1909": 7027,
      "mountains": 7028,
      "praise": 7029,
      "difficulties": 7030,
      "belt": 7031,
      "happened": 7032,
      "suitable": 7033,
      "Matthew": 7034,
      "assassination": 7035,
      "Skye": 7036,
      "Athletic": 7037,
      "adjacent": 7038,
      "Jifna": 7039,
      "Cory": 7040,
      "Dur": 7041,
      "Every": 7042,
      "Kong": 7043,
      "Kevin": 7044,
      "LI": 7045,
      "Labor": 7046,
      "Matt": 7047,
      "Ré": 7048,
      "Wis": 7049,
      "Wild": 7050,
      "Zo": 7051,
      "sunk": 7052,
      "soft": 7053,
      "ene": 7054,
      "ensure": 7055,
      "chronic": 7056,
      "1912": 7057,
      "elabor": 7058,
      "uma": 7059,
      "siege": 7060,
      "asters": 7061,
      "actual": 7062,
      "understanding": 7063,
      "angle": 7064,
      "USD": 7065,
      "lists": 7066,
      "listing": 7067,
      "solution": 7068,
      "Wilson": 7069,
      "disturb": 7070,
      "movements": 7071,
      "alien": 7072,
      "representing": 7073,
      "burial": 7074,
      "appointment": 7075,
      "defeating": 7076,
      "avalry": 7077,
      "Russia": 7078,
      "preparation": 7079,
      "visitors": 7080,
      "judge": 7081,
      "hundreds": 7082,
      "scientific": 7083,
      "Austrian": 7084,
      "throne": 7085,
      "Journal": 7086,
      "infrastru": 7087,
      "Die": 7088,
      "Lower": 7089,
      "Main": 7090,
      "Sa": 7091,
      "Treat": 7092,
      "dense": 7093,
      "gate": 7094,
      "ography": 7095,
      "ration": 7096,
      "ét": 7097,
      "ān": 7098,
      "rebels": 7099,
      "heat": 7100,
      "impression": 7101,
      "impressed": 7102,
      "terbury": 7103,
      "usad": 7104,
      "resumed": 7105,
      "comments": 7106,
      "shark": 7107,
      "exit": 7108,
      "istan": 7109,
      "Channel": 7110,
      "owners": 7111,
      "ignment": 7112,
      "Robin": 7113,
      "understand": 7114,
      "raise": 7115,
      "gos": 7116,
      "angular": 7117,
      "writings": 7118,
      "charged": 7119,
      "annually": 7120,
      "memory": 7121,
      "enses": 7122,
      "ologists": 7123,
      "vention": 7124,
      "Canterbury": 7125,
      "Clint": 7126,
      "1931": 7127,
      "influential": 7128,
      "profit": 7129,
      "Barbar": 7130,
      "telling": 7131,
      "purposes": 7132,
      "coup": 7133,
      "interests": 7134,
      "Corpor": 7135,
      "Palace": 7136,
      "Mexican": 7137,
      "injuries": 7138,
      "materials": 7139,
      "executed": 7140,
      "favorable": 7141,
      "Lawrence": 7142,
      "europium": 7143,
      "chairman": 7144,
      "Classic": 7145,
      "Confeder": 7146,
      "Burns": 7147,
      "Banai": 7148,
      "appropriate": 7149,
      "Grammy": 7150,
      "900": 7151,
      "AP": 7152,
      "Hg": 7153,
      "Jud": 7154,
      "Jos": 7155,
      "Kat": 7156,
      "OC": 7157,
      "Ru": 7158,
      "bats": 7159,
      "ez": 7160,
      "hind": 7161,
      "ka": 7162,
      "pale": 7163,
      "sam": 7164,
      "tailed": 7165,
      "wel": 7166,
      "thin": 7167,
      "incess": 7168,
      "inHg": 7169,
      "ensu": 7170,
      "leuk": 7171,
      "cement": 7172,
      "plom": 7173,
      "option": 7174,
      "abilities": 7175,
      "prohib": 7176,
      "earning": 7177,
      "diplom": 7178,
      "trust": 7179,
      "peare": 7180,
      "ritual": 7181,
      "foss": 7182,
      "ivity": 7183,
      "shipping": 7184,
      "airline": 7185,
      "surpr": 7186,
      "Norway": 7187,
      "Warren": 7188,
      "Shakes": 7189,
      "musicians": 7190,
      "hys": 7191,
      "listen": 7192,
      "bands": 7193,
      "grey": 7194,
      "factory": 7195,
      "bases": 7196,
      "mixture": 7197,
      "clearly": 7198,
      "Poland": 7199,
      "residential": 7200,
      "predomin": 7201,
      "texts": 7202,
      "crews": 7203,
      "recognised": 7204,
      "watching": 7205,
      "objective": 7206,
      "panel": 7207,
      "watershed": 7208,
      "carries": 7209,
      "initiative": 7210,
      "lbw": 7211,
      "specimen": 7212,
      "huge": 7213,
      "bulk": 7214,
      "minimum": 7215,
      "turrets": 7216,
      "Coleman": 7217,
      "Jesus": 7218,
      "Shakespeare": 7219,
      "92": 7220,
      "Ass": 7221,
      "Again": 7222,
      "Bang": 7223,
      "Goffman": 7224,
      "OK": 7225,
      "Pa": 7226,
      "Sav": 7227,
      "Sher": 7228,
      "Tig": 7229,
      "cli": 7230,
      "mad": 7231,
      "pure": 7232,
      "ívar": 7233,
      "thy": 7234,
      "theater": 7235,
      "esis": 7236,
      "wid": 7237,
      "consum": 7238,
      "agas": 7239,
      "comed": 7240,
      "composer": 7241,
      "etts": 7242,
      "express": 7243,
      "twin": 7244,
      "iance": 7245,
      "grav": 7246,
      "guil": 7247,
      "Rober": 7248,
      "temples": 7249,
      "retreat": 7250,
      "offs": 7251,
      "engage": 7252,
      "Johnston": 7253,
      "azing": 7254,
      "simultane": 7255,
      "aska": 7256,
      "ventures": 7257,
      "Hergé": 7258,
      "1933": 7259,
      "kingdom": 7260,
      "communication": 7261,
      "Design": 7262,
      "Police": 7263,
      "needs": 7264,
      "Scientolog": 7265,
      "instance": 7266,
      "argues": 7267,
      "occupation": 7268,
      "prevented": 7269,
      "satell": 7270,
      "objects": 7271,
      "Typhoon": 7272,
      "Janeiro": 7273,
      "windows": 7274,
      "Bolívar": 7275,
      "organisation": 7276,
      "segment": 7277,
      "picture": 7278,
      "reinforcements": 7279,
      "Cambodia": 7280,
      "convinced": 7281,
      "preferred": 7282,
      "false": 7283,
      "circumstances": 7284,
      "Saprang": 7285,
      "overwhel": 7286,
      "Elizabeth": 7287,
      "Kilmer": 7288,
      "97": 7289,
      "Bureau": 7290,
      "CC": 7291,
      "Found": 7292,
      "Fras": 7293,
      "JMA": 7294,
      "Pi": 7295,
      "Race": 7296,
      "Wimb": 7297,
      "blow": 7298,
      "card": 7299,
      "dess": 7300,
      "ske": 7301,
      "sailed": 7302,
      "wan": 7303,
      "inaug": 7304,
      "erog": 7305,
      "represents": 7306,
      "amond": 7307,
      "ows": 7308,
      "ceased": 7309,
      "absol": 7310,
      "dialogue": 7311,
      "intent": 7312,
      "span": 7313,
      "spaces": 7314,
      "displays": 7315,
      "bright": 7316,
      "anyon": 7317,
      "anyone": 7318,
      "Alf": 7319,
      "Along": 7320,
      "ledon": 7321,
      "parish": 7322,
      "extent": 7323,
      "consol": 7324,
      "Gerard": 7325,
      "tribut": 7326,
      "causes": 7327,
      "talk": 7328,
      "Guy": 7329,
      "periods": 7330,
      "communications": 7331,
      "styles": 7332,
      "Organ": 7333,
      "representative": 7334,
      "BCE": 7335,
      "survive": 7336,
      "travelled": 7337,
      "municipal": 7338,
      "Koreans": 7339,
      "departure": 7340,
      "Lawton": 7341,
      "moments": 7342,
      "Lords": 7343,
      "Justice": 7344,
      "Hearts": 7345,
      "Nazi": 7346,
      "proposal": 7347,
      "Palestine": 7348,
      "narrative": 7349,
      "exerc": 7350,
      "Indones": 7351,
      "iques": 7352,
      "teorological": 7353,
      "deemed": 7354,
      "Clinton": 7355,
      "Fraser": 7356,
      "Wimbledon": 7357,
      "Branch": 7358,
      "Ell": 7359,
      "Pine": 7360,
      "Wolf": 7361,
      "cash": 7362,
      "creek": 7363,
      "hun": 7364,
      "hot": 7365,
      "relie": 7366,
      "reconstruction": 7367,
      "atropical": 7368,
      "stall": 7369,
      "anda": 7370,
      "illy": 7371,
      "deleg": 7372,
      "rific": 7373,
      "library": 7374,
      "cles": 7375,
      "ills": 7376,
      "isters": 7377,
      "iven": 7378,
      "prep": 7379,
      "bridges": 7380,
      "amps": 7381,
      "interaction": 7382,
      "internal": 7383,
      "phr": 7384,
      "venues": 7385,
      "arrior": 7386,
      "annah": 7387,
      "muscar": 7388,
      "lanes": 7389,
      "starling": 7390,
      "towers": 7391,
      "Guardian": 7392,
      "Mega": 7393,
      "formerly": 7394,
      "Geoff": 7395,
      "influences": 7396,
      "criticised": 7397,
      "Harrison": 7398,
      "poorly": 7399,
      "Richardson": 7400,
      "extratropical": 7401,
      "itzer": 7402,
      "observations": 7403,
      "throwing": 7404,
      "architecture": 7405,
      "defenders": 7406,
      "Delaware": 7407,
      "Build": 7408,
      "restoration": 7409,
      "delayed": 7410,
      "Stock": 7411,
      "instruments": 7412,
      "legislation": 7413,
      "Originally": 7414,
      "compounds": 7415,
      "prompted": 7416,
      "doubt": 7417,
      "tactics": 7418,
      "Formula": 7419,
      "behaviour": 7420,
      "decorated": 7421,
      "descend": 7422,
      "global": 7423,
      "dramatic": 7424,
      "Education": 7425,
      "acknowled": 7426,
      "Queensland": 7427,
      "Christopher": 7428,
      "91": 7429,
      "DC": 7430,
      "Komb": 7431,
      "Now": 7432,
      "Sweet": 7433,
      "bits": 7434,
      "citing": 7435,
      "dney": 7436,
      "easy": 7437,
      "tap": 7438,
      "uge": 7439,
      "zac": 7440,
      "thesis": 7441,
      "rever": 7442,
      "rebuilt": 7443,
      "remember": 7444,
      "ati": 7445,
      "atom": 7446,
      "orous": 7447,
      "enous": 7448,
      "ofess": 7449,
      "imprison": 7450,
      "moon": 7451,
      "diag": 7452,
      "shar": 7453,
      "poets": 7454,
      "feather": 7455,
      "Then": 7456,
      "brig": 7457,
      "genetic": 7458,
      "arrive": 7459,
      "useful": 7460,
      "1940s": 7461,
      "ificial": 7462,
      "USS": 7463,
      "Management": 7464,
      "defending": 7465,
      "considers": 7466,
      "Profess": 7467,
      "Administr": 7468,
      "tests": 7469,
      "grown": 7470,
      "villages": 7471,
      "Berlin": 7472,
      "Atlanta": 7473,
      "electronic": 7474,
      "switch": 7475,
      "Keamy": 7476,
      "models": 7477,
      "thinking": 7478,
      "establishing": 7479,
      "properties": 7480,
      "feelings": 7481,
      "keeping": 7482,
      "documents": 7483,
      "walk": 7484,
      "Cathedral": 7485,
      "severely": 7486,
      "molec": 7487,
      "pursue": 7488,
      "journalist": 7489,
      "strategy": 7490,
      "criminal": 7491,
      "Mortal": 7492,
      "substantial": 7493,
      "Kombat": 7494,
      "Bron": 7495,
      "Cad": 7496,
      "Celt": 7497,
      "Eric": 7498,
      "Gary": 7499,
      "Hud": 7500,
      "Our": 7501,
      "Rom": 7502,
      "Tal": 7503,
      "Ut": 7504,
      "Wright": 7505,
      "ds": 7506,
      "horn": 7507,
      "tle": 7508,
      "vul": 7509,
      "thosaurus": 7510,
      "anz": 7511,
      "sters": 7512,
      "roit": 7513,
      "ilst": 7514,
      "ches": 7515,
      "idd": 7516,
      "uscript": 7517,
      "ulli": 7518,
      "1928": 7519,
      "resigned": 7520,
      "apy": 7521,
      "compete": 7522,
      "plus": 7523,
      "sher": 7524,
      "expo": 7525,
      "emies": 7526,
      "persu": 7527,
      "feed": 7528,
      "attained": 7529,
      "brick": 7530,
      "regiment": 7531,
      "dog": 7532,
      "Comple": 7533,
      "Joy": 7534,
      "warships": 7535,
      "sisters": 7536,
      "cargo": 7537,
      "atherine": 7538,
      "counties": 7539,
      "Canal": 7540,
      "falls": 7541,
      "1957": 7542,
      "trading": 7543,
      "productions": 7544,
      "Ministry": 7545,
      "netic": 7546,
      "techniques": 7547,
      "doesn": 7548,
      "audio": 7549,
      "respective": 7550,
      "engineer": 7551,
      "portrait": 7552,
      "altern": 7553,
      "Arabic": 7554,
      "ethnic": 7555,
      "Albums": 7556,
      "encountered": 7557,
      "Satur": 7558,
      "Detroit": 7559,
      "Plunketts": 7560,
      "Corythosaurus": 7561,
      "Dark": 7562,
      "Fair": 7563,
      "Jr": 7564,
      "Rul": 7565,
      "Stop": 7566,
      "Wrestling": 7567,
      "barri": 7568,
      "hid": 7569,
      "mates": 7570,
      "sung": 7571,
      "va": 7572,
      "wheel": 7573,
      "yn": 7574,
      "remarked": 7575,
      "isis": 7576,
      "icide": 7577,
      "ilation": 7578,
      "beautiful": 7579,
      "wasn": 7580,
      "demo": 7581,
      "determ": 7582,
      "impl": 7583,
      "convers": 7584,
      "1926": 7585,
      "apore": 7586,
      "outbreak": 7587,
      "afford": 7588,
      "otherwise": 7589,
      "crest": 7590,
      "crisis": 7591,
      "oba": 7592,
      "Moore": 7593,
      "consci": 7594,
      "originated": 7595,
      "northward": 7596,
      "striking": 7597,
      "soul": 7598,
      "Guard": 7599,
      "armament": 7600,
      "difference": 7601,
      "Allah": 7602,
      "experiences": 7603,
      "Express": 7604,
      "ullen": 7605,
      "audiences": 7606,
      "Jews": 7607,
      "civilians": 7608,
      "engineers": 7609,
      "depicts": 7610,
      "bellion": 7611,
      "spoke": 7612,
      "Singapore": 7613,
      "indicating": 7614,
      "demonstrated": 7615,
      "FIA": 7616,
      "schedule": 7617,
      "climate": 7618,
      "Upper": 7619,
      "Defence": 7620,
      "tunnel": 7621,
      "Marlborough": 7622,
      "Hitler": 7623,
      "pyramid": 7624,
      "Fernand": 7625,
      "infrastructure": 7626,
      "guilty": 7627,
      "satellite": 7628,
      "erogative": 7629,
      "determine": 7630,
      "07": 7631,
      "CO": 7632,
      "Elect": 7633,
      "Garc": 7634,
      "Pass": 7635,
      "dal": 7636,
      "festival": 7637,
      "gard": 7638,
      "kitsune": 7639,
      "nations": 7640,
      "sq": 7641,
      "tight": 7642,
      "uit": 7643,
      "vard": 7644,
      "inct": 7645,
      "informed": 7646,
      "ano": 7647,
      "unlike": 7648,
      "orbit": 7649,
      "encing": 7650,
      "stab": 7651,
      "stell": 7652,
      "arte": 7653,
      "icit": 7654,
      "iling": 7655,
      "sevent": 7656,
      "semble": 7657,
      "amin": 7658,
      "bears": 7659,
      "oli": 7660,
      "prove": 7661,
      "poison": 7662,
      "expression": 7663,
      "notably": 7664,
      "uding": 7665,
      "portions": 7666,
      "1850": 7667,
      "spell": 7668,
      "Anti": 7669,
      "Anzac": 7670,
      "scattered": 7671,
      "interpre": 7672,
      "understood": 7673,
      "doct": 7674,
      "elev": 7675,
      "warning": 7676,
      "describe": 7677,
      "poll": 7678,
      "See": 7679,
      "triple": 7680,
      "voiced": 7681,
      "ibility": 7682,
      "Fei": 7683,
      "differences": 7684,
      "1934": 7685,
      "refuge": 7686,
      "collect": 7687,
      "Soon": 7688,
      "21st": 7689,
      "closest": 7690,
      "Phillies": 7691,
      "looks": 7692,
      "Championships": 7693,
      "slop": 7694,
      "Palmy": 7695,
      "burning": 7696,
      "clock": 7697,
      "assisted": 7698,
      "deliber": 7699,
      "Media": 7700,
      "violent": 7701,
      "ranging": 7702,
      "kilome": 7703,
      "analy": 7704,
      "weapon": 7705,
      "Miller": 7706,
      "touchdowns": 7707,
      "corner": 7708,
      "evacuation": 7709,
      "ordinary": 7710,
      "drove": 7711,
      "Gallery": 7712,
      "smooth": 7713,
      "behavior": 7714,
      "Supreme": 7715,
      "Nevertheless": 7716,
      "distinguished": 7717,
      "Ricky": 7718,
      "predecessor": 7719,
      "Territory": 7720,
      "Stefani": 7721,
      "congreg": 7722,
      "Corporation": 7723,
      "García": 7724,
      "08": 7725,
      "Bed": 7726,
      "Cur": 7727,
      "CBS": 7728,
      "Gate": 7729,
      "Having": 7730,
      "Kim": 7731,
      "RNA": 7732,
      "Tam": 7733,
      "Vari": 7734,
      "lon": 7735,
      "nut": 7736,
      "sale": 7737,
      "uable": 7738,
      "atops": 7739,
      "ori": 7740,
      "toll": 7741,
      "sect": 7742,
      "olay": 7743,
      "verte": 7744,
      "terrain": 7745,
      "constitution": 7746,
      "residence": 7747,
      "compos": 7748,
      "abol": 7749,
      "lium": 7750,
      "antly": 7751,
      "manuscript": 7752,
      "partner": 7753,
      "desert": 7754,
      "ranking": 7755,
      "ranges": 7756,
      "displayed": 7757,
      "elections": 7758,
      "helmet": 7759,
      "cleared": 7760,
      "trials": 7761,
      "musician": 7762,
      "Stein": 7763,
      "casting": 7764,
      "generals": 7765,
      "factors": 7766,
      "marry": 7767,
      "Earl": 7768,
      "penet": 7769,
      "tested": 7770,
      "Techn": 7771,
      "Minor": 7772,
      "garrison": 7773,
      "Sydney": 7774,
      "goddess": 7775,
      "closure": 7776,
      "ugal": 7777,
      "conclusion": 7778,
      "copy": 7779,
      "harbour": 7780,
      "considering": 7781,
      "dynam": 7782,
      "bombard": 7783,
      "Overall": 7784,
      "FIFA": 7785,
      "Enterprise": 7786,
      "divor": 7787,
      "vehicle": 7788,
      "opponent": 7789,
      "collapsed": 7790,
      "Pitman": 7791,
      "restricted": 7792,
      "onomy": 7793,
      "suspended": 7794,
      "Baseball": 7795,
      "supporters": 7796,
      "moderate": 7797,
      "Initially": 7798,
      "martial": 7799,
      "Treaty": 7800,
      "batsman": 7801,
      "prepare": 7802,
      "vertebr": 7803,
      "1000": 7804,
      "Bark": 7805,
      "CP": 7806,
      "Event": 7807,
      "Hob": 7808,
      "Link": 7809,
      "NS": 7810,
      "Rest": 7811,
      "Such": 7812,
      "Vis": 7813,
      "Women": 7814,
      "cated": 7815,
      "dangerous": 7816,
      "fate": 7817,
      "fault": 7818,
      "fishing": 7819,
      "ias": 7820,
      "lig": 7821,
      "saved": 7822,
      "turb": 7823,
      "vast": 7824,
      "ths": 7825,
      "inher": 7826,
      "rell": 7827,
      "recur": 7828,
      "ora": 7829,
      "aming": 7830,
      "chism": 7831,
      "aga": 7832,
      "elli": 7833,
      "abund": 7834,
      "ables": 7835,
      "proto": 7836,
      "cler": 7837,
      "quant": 7838,
      "quali": 7839,
      "Stand": 7840,
      "landings": 7841,
      "ptions": 7842,
      "gry": 7843,
      "rank": 7844,
      "Until": 7845,
      "mainland": 7846,
      "flash": 7847,
      "obvious": 7848,
      "operates": 7849,
      "approval": 7850,
      "Guide": 7851,
      "fallen": 7852,
      "situated": 7853,
      "Monument": 7854,
      "housing": 7855,
      "railroad": 7856,
      "demands": 7857,
      "Legacy": 7858,
      "premiere": 7859,
      "pupils": 7860,
      "Silver": 7861,
      "Ohio": 7862,
      "exclusively": 7863,
      "hunting": 7864,
      "Aerith": 7865,
      "assembled": 7866,
      "Persian": 7867,
      "rhythm": 7868,
      "scheme": 7869,
      "absolute": 7870,
      "Hudson": 7871,
      "exposure": 7872,
      "Baker": 7873,
      "Dave": 7874,
      "Dev": 7875,
      "Furt": 7876,
      "IA": 7877,
      "JT": 7878,
      "Jac": 7879,
      "Rain": 7880,
      "Wing": 7881,
      "Wic": 7882,
      "Ward": 7883,
      "fy": 7884,
      "ito": 7885,
      "saves": 7886,
      "tz": 7887,
      "ingly": 7888,
      "icate": 7889,
      "acle": 7890,
      "illi": 7891,
      "ternal": 7892,
      "terror": 7893,
      "rifle": 7894,
      "liber": 7895,
      "lob": 7896,
      "ava": 7897,
      "founder": 7898,
      "graf": 7899,
      "pressing": 7900,
      "disaster": 7901,
      "scop": 7902,
      "iction": 7903,
      "underwent": 7904,
      "retre": 7905,
      "Release": 7906,
      "Season": 7907,
      "readers": 7908,
      "Grade": 7909,
      "ruling": 7910,
      "interesting": 7911,
      "agogue": 7912,
      "statistics": 7913,
      "circle": 7914,
      "temporarily": 7915,
      "employment": 7916,
      "costs": 7917,
      "scriptions": 7918,
      "Markgraf": 7919,
      "contribution": 7920,
      "altered": 7921,
      "subjects": 7922,
      "rupted": 7923,
      "celebrated": 7924,
      "biggest": 7925,
      "southeastern": 7926,
      "opportunities": 7927,
      "struggle": 7928,
      "Confess": 7929,
      "Furthermore": 7930,
      "premiered": 7931,
      "collapse": 7932,
      "spiritual": 7933,
      "publisher": 7934,
      "Swedish": 7935,
      "accurate": 7936,
      "Dominican": 7937,
      "Raffles": 7938,
      "giant": 7939,
      "perspective": 7940,
      "Saturday": 7941,
      "Furtado": 7942,
      "JTWC": 7943,
      "Dak": 7944,
      "Es": 7945,
      "Hope": 7946,
      "Last": 7947,
      "Mong": 7948,
      "Much": 7949,
      "Rap": 7950,
      "Rem": 7951,
      "Tai": 7952,
      "Usta": 7953,
      "VI": 7954,
      "banned": 7955,
      "hull": 7956,
      "trough": 7957,
      "taker": 7958,
      "ár": 7959,
      "unes": 7960,
      "aments": 7961,
      "amino": 7962,
      "condem": 7963,
      "ctic": 7964,
      "usage": 7965,
      "otic": 7966,
      "eline": 7967,
      "apa": 7968,
      "excell": 7969,
      "artwork": 7970,
      "ewise": 7971,
      "aka": 7972,
      "ishment": 7973,
      "mann": 7974,
      "ights": 7975,
      "prerogative": 7976,
      "Stu": 7977,
      "format": 7978,
      "creative": 7979,
      "tenance": 7980,
      "raising": 7981,
      "cancer": 7982,
      "charity": 7983,
      "highways": 7984,
      "elevation": 7985,
      "Moon": 7986,
      "Sholay": 7987,
      "depending": 7988,
      "azines": 7989,
      "stries": 7990,
      "gets": 7991,
      "Stewart": 7992,
      "trouble": 7993,
      "realized": 7994,
      "magazines": 7995,
      "Interstate": 7996,
      "itarian": 7997,
      "Portugal": 7998,
      "radiation": 7999,
      "electron": 8000,
      "conduct": 8001,
      "measured": 8002,
      "researchers": 8003,
      "amounts": 8004,
      "Years": 8005,
      "reservo": 8006,
      "nationally": 8007,
      "Campaign": 8008,
      "withdrawal": 8009,
      "succeed": 8010,
      "powered": 8011,
      "steps": 8012,
      "Headquarters": 8013,
      "NCAA": 8014,
      "seeking": 8015,
      "advertising": 8016,
      "eliminated": 8017,
      "dominant": 8018,
      "dispatch": 8019,
      "NHL": 8020,
      "crops": 8021,
      "conspiracy": 8022,
      "Gilbert": 8023,
      "retirement": 8024,
      "Mozambique": 8025,
      "Krak": 8026,
      "muscaria": 8027,
      "Ustaš": 8028,
      "02": 8029,
      "Avi": 8030,
      "Bass": 8031,
      "Bath": 8032,
      "Bio": 8033,
      "Budd": 8034,
      "Cop": 8035,
      "Come": 8036,
      "Gun": 8037,
      "Hamp": 8038,
      "MI": 8039,
      "MO": 8040,
      "Napo": 8041,
      "Sulli": 8042,
      "Ton": 8043,
      "dish": 8044,
      "driver": 8045,
      "gri": 8046,
      "gie": 8047,
      "oing": 8048,
      "pit": 8049,
      "rus": 8050,
      "slip": 8051,
      "tale": 8052,
      "vals": 8053,
      "onia": 8054,
      "bear": 8055,
      "imperial": 8056,
      "owie": 8057,
      "otal": 8058,
      "ette": 8059,
      "earn": 8060,
      "diet": 8061,
      "exists": 8062,
      "emp": 8063,
      "manga": 8064,
      "Thus": 8065,
      "mines": 8066,
      "releases": 8067,
      "subspecies": 8068,
      "relations": 8069,
      "Coach": 8070,
      "Dean": 8071,
      "oys": 8072,
      "Wars": 8073,
      "designer": 8074,
      "characterized": 8075,
      "promised": 8076,
      "publications": 8077,
      "mbar": 8078,
      "childhood": 8079,
      "Allen": 8080,
      "explains": 8081,
      "putting": 8082,
      "everyone": 8083,
      "directors": 8084,
      "profile": 8085,
      "Barry": 8086,
      "1908": 8087,
      "burgh": 8088,
      "Maggie": 8089,
      "reveal": 8090,
      "cyclones": 8091,
      "freedom": 8092,
      "Toronto": 8093,
      "nominations": 8094,
      "withdrawn": 8095,
      "Israeli": 8096,
      "classification": 8097,
      "experiment": 8098,
      "Boys": 8099,
      "advancing": 8100,
      "Hawaii": 8101,
      "Communist": 8102,
      "Austria": 8103,
      "columns": 8104,
      "conventional": 8105,
      "Belgium": 8106,
      "strategic": 8107,
      "Hungarian": 8108,
      "Heavyweight": 8109,
      "DAG": 8110,
      "jackrab": 8111,
      "employees": 8112,
      "psych": 8113,
      "Barker": 8114,
      "Napole": 8115,
      "Sullivan": 8116,
      "86": 8117,
      "99": 8118,
      "Ash": 8119,
      "Bad": 8120,
      "Bah": 8121,
      "DH": 8122,
      "Dig": 8123,
      "Hok": 8124,
      "Knight": 8125,
      "Labour": 8126,
      "Mack": 8127,
      "Nel": 8128,
      "Nash": 8129,
      "Shel": 8130,
      "Tok": 8131,
      "ios": 8132,
      "pes": 8133,
      "pist": 8134,
      "sid": 8135,
      "skills": 8136,
      "slide": 8137,
      "vati": 8138,
      "yd": 8139,
      "inate": 8140,
      "eration": 8141,
      "oral": 8142,
      "enemies": 8143,
      "adm": 8144,
      "beauty": 8145,
      "chess": 8146,
      "ceme": 8147,
      "ott": 8148,
      "1923": 8149,
      "clust": 8150,
      "peaking": 8151,
      "coins": 8152,
      "neth": 8153,
      "spend": 8154,
      "guerr": 8155,
      "centers": 8156,
      "Ancient": 8157,
      "cry": 8158,
      "crake": 8159,
      "visiting": 8160,
      "Arsen": 8161,
      "drain": 8162,
      "submitted": 8163,
      "thereafter": 8164,
      "servative": 8165,
      "steep": 8166,
      "metre": 8167,
      "14th": 8168,
      "ithic": 8169,
      "Tracy": 8170,
      "Parvati": 8171,
      "urricanes": 8172,
      "strongest": 8173,
      "Afric": 8174,
      "1905": 8175,
      "businesses": 8176,
      "Rocky": 8177,
      "spores": 8178,
      "Business": 8179,
      "frequent": 8180,
      "Campbell": 8181,
      "Mrs": 8182,
      "Turks": 8183,
      "biograph": 8184,
      "batteries": 8185,
      "culmin": 8186,
      "targets": 8187,
      "Caes": 8188,
      "Derry": 8189,
      "concentrated": 8190,
      "initiated": 8191,
      "excavation": 8192,
      "Protestant": 8193,
      "emphasis": 8194,
      "dinosaur": 8195,
      "benefit": 8196,
      "strengthened": 8197,
      "cabin": 8198,
      "Phoenix": 8199,
      "Watson": 8200,
      "Réunion": 8201,
      "Alfred": 8202,
      "Organization": 8203,
      "Building": 8204,
      "qualified": 8205,
      "cemetery": 8206,
      "Arsenal": 8207,
      "05": 8208,
      "09": 8209,
      "Amy": 8210,
      "Asian": 8211,
      "Eagle": 8212,
      "Eaton": 8213,
      "Flo": 8214,
      "Gwen": 8215,
      "IAA": 8216,
      "Jason": 8217,
      "Kann": 8218,
      "Kenn": 8219,
      "Lith": 8220,
      "Sid": 8221,
      "Slayer": 8222,
      "Win": 8223,
      "eat": 8224,
      "jury": 8225,
      "kne": 8226,
      "lad": 8227,
      "mam": 8228,
      "pin": 8229,
      "votes": 8230,
      "wrest": 8231,
      "yield": 8232,
      "inscriptions": 8233,
      "enic": 8234,
      "alive": 8235,
      "essee": 8236,
      "heera": 8237,
      "hearing": 8238,
      "conversion": 8239,
      "constitut": 8240,
      "iders": 8241,
      "resign": 8242,
      "artificial": 8243,
      "feels": 8244,
      "prime": 8245,
      "kees": 8246,
      "iverse": 8247,
      "surrender": 8248,
      "Cook": 8249,
      "Lead": 8250,
      "consin": 8251,
      "ekān": 8252,
      "decay": 8253,
      "decides": 8254,
      "milit": 8255,
      "starlings": 8256,
      "placement": 8257,
      "labe": 8258,
      "latex": 8259,
      "aimed": 8260,
      "topped": 8261,
      "variation": 8262,
      "Graves": 8263,
      "armoured": 8264,
      "Paraly": 8265,
      "Social": 8266,
      "amongst": 8267,
      "household": 8268,
      "testing": 8269,
      "affili": 8270,
      "sounds": 8271,
      "graduate": 8272,
      "rocks": 8273,
      "fifty": 8274,
      "fifteen": 8275,
      "delivery": 8276,
      "boundary": 8277,
      "discuss": 8278,
      "believing": 8279,
      "pounds": 8280,
      "credit": 8281,
      "holiday": 8282,
      "beaten": 8283,
      "Tennessee": 8284,
      "Critics": 8285,
      "districts": 8286,
      "Bulgar": 8287,
      "Rhodesia": 8288,
      "Jonathan": 8289,
      "patrol": 8290,
      "adaptation": 8291,
      "tavāda": 8292,
      "architectural": 8293,
      "merely": 8294,
      "removal": 8295,
      "inscription": 8296,
      "Patty": 8297,
      "Kelly": 8298,
      "Wisconsin": 8299,
      "Roberts": 8300,
      "skele": 8301,
      "Ustaše": 8302,
      "Kannada": 8303,
      "Lithuan": 8304,
      "Paralymp": 8305,
      "06": 8306,
      "83": 8307,
      "87": 8308,
      "Category": 8309,
      "Div": 8310,
      "Have": 8311,
      "Kit": 8312,
      "Khand": 8313,
      "Las": 8314,
      "Mand": 8315,
      "Mot": 8316,
      "Murr": 8317,
      "Midge": 8318,
      "Masters": 8319,
      "Már": 8320,
      "Next": 8321,
      "Pur": 8322,
      "Raw": 8323,
      "Sis": 8324,
      "laugh": 8325,
      "spr": 8326,
      "vault": 8327,
      "uni": 8328,
      "uncertain": 8329,
      "assembly": 8330,
      "isation": 8331,
      "illegal": 8332,
      "forth": 8333,
      "chrom": 8334,
      "chamber": 8335,
      "1925": 8336,
      "ressing": 8337,
      "suicide": 8338,
      "prosecut": 8339,
      "Ing": 8340,
      "pounder": 8341,
      "emia": 8342,
      "sible": 8343,
      "aku": 8344,
      "loose": 8345,
      "notice": 8346,
      "fountain": 8347,
      "neath": 8348,
      "achute": 8349,
      "Ros": 8350,
      "effic": 8351,
      "ryce": 8352,
      "substitute": 8353,
      "osex": 8354,
      "surprise": 8355,
      "arriving": 8356,
      "engagement": 8357,
      "talking": 8358,
      "genera": 8359,
      "quez": 8360,
      "posts": 8361,
      "howitz": 8362,
      "Anglo": 8363,
      "1890": 8364,
      "predators": 8365,
      "atinum": 8366,
      "potentially": 8367,
      "departed": 8368,
      "stores": 8369,
      "application": 8370,
      "conflicts": 8371,
      "balance": 8372,
      "Howe": 8373,
      "petition": 8374,
      "distinctive": 8375,
      "pulled": 8376,
      "Bulls": 8377,
      "environmental": 8378,
      "comparison": 8379,
      "fatal": 8380,
      "Railway": 8381,
      "nurse": 8382,
      "theatrical": 8383,
      "demolished": 8384,
      "Network": 8385,
      "magnitude": 8386,
      "Foundation": 8387,
      "Eventually": 8388,
      "Stuart": 8389,
      "empire": 8390,
      "Khandoba": 8391,
      "Murray": 8392,
      "Márquez": 8393,
      "84": 8394,
      "Benn": 8395,
      "Benj": 8396,
      "Dick": 8397,
      "Denn": 8398,
      "Fo": 8399,
      "FRE": 8400,
      "Kn": 8401,
      "Mach": 8402,
      "Nad": 8403,
      "NDH": 8404,
      "Pot": 8405,
      "Ra": 8406,
      "Sans": 8407,
      "cke": 8408,
      "dwar": 8409,
      "navy": 8410,
      "pa": 8411,
      "patch": 8412,
      "sad": 8413,
      "tub": 8414,
      "vs": 8415,
      "wre": 8416,
      "threw": 8417,
      "inno": 8418,
      "edges": 8419,
      "unlikely": 8420,
      "stick": 8421,
      "toured": 8422,
      "oux": 8423,
      "adventure": 8424,
      "omura": 8425,
      "forty": 8426,
      "wider": 8427,
      "atechism": 8428,
      "artney": 8429,
      "ongoing": 8430,
      "permission": 8431,
      "mental": 8432,
      "udo": 8433,
      "Stories": 8434,
      "evident": 8435,
      "1830": 8436,
      "gray": 8437,
      "grade": 8438,
      "spin": 8439,
      "adequ": 8440,
      "merged": 8441,
      "maintenance": 8442,
      "iff": 8443,
      "myst": 8444,
      "surve": 8445,
      "completing": 8446,
      "ologies": 8447,
      "ennium": 8448,
      "Gray": 8449,
      "armies": 8450,
      "handled": 8451,
      "advice": 8452,
      "referring": 8453,
      "friendly": 8454,
      "consistent": 8455,
      "1901": 8456,
      "mediate": 8457,
      "reducing": 8458,
      "Hills": 8459,
      "Madison": 8460,
      "swim": 8461,
      "Keith": 8462,
      "1861": 8463,
      "coaching": 8464,
      "Swiss": 8465,
      "synagogue": 8466,
      "rolling": 8467,
      "emergency": 8468,
      "expert": 8469,
      "settlements": 8470,
      "bene": 8471,
      "cules": 8472,
      "McCartney": 8473,
      "hills": 8474,
      "illustr": 8475,
      "Journey": 8476,
      "Falls": 8477,
      "Girls": 8478,
      "helicopters": 8479,
      "Jurchen": 8480,
      "Similarly": 8481,
      "Village": 8482,
      "imetres": 8483,
      "Mulder": 8484,
      "LIMO": 8485,
      "Benjamin": 8486,
      "FRELIMO": 8487,
      "dwarf": 8488,
      "Hou": 8489,
      "Imp": 8490,
      "Imag": 8491,
      "Oscar": 8492,
      "Sb": 8493,
      "Seven": 8494,
      "Tree": 8495,
      "Wu": 8496,
      "caves": 8497,
      "fest": 8498,
      "fasc": 8499,
      "hl": 8500,
      "hen": 8501,
      "iet": 8502,
      "lined": 8503,
      "oples": 8504,
      "sco": 8505,
      "tario": 8506,
      "ware": 8507,
      "wings": 8508,
      "śni": 8509,
      "inations": 8510,
      "inhab": 8511,
      "inflict": 8512,
      "anekān": 8513,
      "erry": 8514,
      "oming": 8515,
      "beating": 8516,
      "conservation": 8517,
      "1924": 8518,
      "uty": 8519,
      "utz": 8520,
      "spending": 8521,
      "spots": 8522,
      "guide": 8523,
      "Those": 8524,
      "Anne": 8525,
      "uez": 8526,
      "ernon": 8527,
      "coln": 8528,
      "Ontario": 8529,
      "recordings": 8530,
      "starring": 8531,
      "controls": 8532,
      "weekend": 8533,
      "Lost": 8534,
      "chell": 8535,
      "Guine": 8536,
      "Trail": 8537,
      "Scully": 8538,
      "similarly": 8539,
      "structural": 8540,
      "Peters": 8541,
      "capturing": 8542,
      "Perfect": 8543,
      "tooth": 8544,
      "1907": 8545,
      "Program": 8546,
      "networks": 8547,
      "closing": 8548,
      "definition": 8549,
      "northeastern": 8550,
      "spacecraft": 8551,
      "melody": 8552,
      "Rifles": 8553,
      "Studio": 8554,
      "MLB": 8555,
      "secretary": 8556,
      "strikeouts": 8557,
      "Louisiana": 8558,
      "Outstanding": 8559,
      "rushing": 8560,
      "Original": 8561,
      "Obser": 8562,
      "negotiations": 8563,
      "philosophy": 8564,
      "Leslie": 8565,
      "Lincoln": 8566,
      "discipl": 8567,
      "Wiśni": 8568,
      "elaborate": 8569,
      "simultaneously": 8570,
      "feathers": 8571,
      "owiecki": 8572,
      "Houston": 8573,
      "Wiśniowiecki": 8574,
      "113": 8575,
      "978": 8576,
      "Fel": 8577,
      "Raj": 8578,
      "Sand": 8579,
      "bind": 8580,
      "fusion": 8581,
      "nership": 8582,
      "sang": 8583,
      "tasked": 8584,
      "unch": 8585,
      "remove": 8586,
      "enthus": 8587,
      "stin": 8588,
      "heim": 8589,
      "bee": 8590,
      "beats": 8591,
      "concess": 8592,
      "usan": 8593,
      "ride": 8594,
      "comfort": 8595,
      "truck": 8596,
      "trapped": 8597,
      "loved": 8598,
      "locks": 8599,
      "perimeter": 8600,
      "string": 8601,
      "avo": 8602,
      "overs": 8603,
      "ported": 8604,
      "timate": 8605,
      "Health": 8606,
      "pressive": 8607,
      "meters": 8608,
      "cking": 8609,
      "disband": 8610,
      "braska": 8611,
      "Austro": 8612,
      "Author": 8613,
      "anges": 8614,
      "choir": 8615,
      "lacked": 8616,
      "values": 8617,
      "hypo": 8618,
      "Meteorological": 8619,
      "breed": 8620,
      "facility": 8621,
      "Mathew": 8622,
      "calc": 8623,
      "Together": 8624,
      "Davis": 8625,
      "ruler": 8626,
      "Walker": 8627,
      "helping": 8628,
      "1880s": 8629,
      "Magdal": 8630,
      "Nebraska": 8631,
      "professor": 8632,
      "donated": 8633,
      "fundament": 8634,
      "participate": 8635,
      "percentage": 8636,
      "birthday": 8637,
      "Glad": 8638,
      "bombing": 8639,
      "jobs": 8640,
      "sculptures": 8641,
      "newspapers": 8642,
      "platoon": 8643,
      "Trek": 8644,
      "struggled": 8645,
      "Langu": 8646,
      "excavations": 8647,
      "manufactur": 8648,
      "scientists": 8649,
      "duty": 8650,
      "sacred": 8651,
      "collaboration": 8652,
      "Chapel": 8653,
      "waiting": 8654,
      "Broadway": 8655,
      "ropolitan": 8656,
      "surgery": 8657,
      "vegetation": 8658,
      "phrase": 8659,
      "Celtic": 8660,
      "hidden": 8661,
      "Hokies": 8662,
      "Mathews": 8663,
      "350": 8664,
      "73": 8665,
      "Ace": 8666,
      "Actor": 8667,
      "Agency": 8668,
      "Bible": 8669,
      "Canyon": 8670,
      "Ful": 8671,
      "Hong": 8672,
      "Hans": 8673,
      "Ian": 8674,
      "Khan": 8675,
      "Let": 8676,
      "Lev": 8677,
      "Mk": 8678,
      "Por": 8679,
      "Pow": 8680,
      "Shad": 8681,
      "Ur": 8682,
      "Vul": 8683,
      "VII": 8684,
      "Witch": 8685,
      "Wander": 8686,
      "bare": 8687,
      "ffield": 8688,
      "gap": 8689,
      "gates": 8690,
      "mmet": 8691,
      "nels": 8692,
      "ogram": 8693,
      "pus": 8694,
      "tig": 8695,
      "zes": 8696,
      "inary": 8697,
      "institution": 8698,
      "anthem": 8699,
      "anime": 8700,
      "revised": 8701,
      "orient": 8702,
      "itim": 8703,
      "icul": 8704,
      "adier": 8705,
      "amid": 8706,
      "olis": 8707,
      "wives": 8708,
      "opt": 8709,
      "shares": 8710,
      "tru": 8711,
      "coin": 8712,
      "upset": 8713,
      "Chagas": 8714,
      "inclusion": 8715,
      "brush": 8716,
      "monit": 8717,
      "undertaken": 8718,
      "tenth": 8719,
      "Ark": 8720,
      "suburb": 8721,
      "parody": 8722,
      "receives": 8723,
      "warfare": 8724,
      "operational": 8725,
      "mayor": 8726,
      "dams": 8727,
      "Sheffield": 8728,
      "legitim": 8729,
      "famili": 8730,
      "lights": 8731,
      "restore": 8732,
      "talks": 8733,
      "Christians": 8734,
      "commandment": 8735,
      "reflected": 8736,
      "colleagues": 8737,
      "Without": 8738,
      "elsen": 8739,
      "programming": 8740,
      "shoulder": 8741,
      "Register": 8742,
      "Harold": 8743,
      "goods": 8744,
      "aboard": 8745,
      "oxy": 8746,
      "Finals": 8747,
      "Abby": 8748,
      "Angela": 8749,
      "Valky": 8750,
      "Switzer": 8751,
      "discussion": 8752,
      "execution": 8753,
      "Malley": 8754,
      "definite": 8755,
      "bowl": 8756,
      "Giants": 8757,
      "biographer": 8758,
      "tournaments": 8759,
      "walking": 8760,
      "banks": 8761,
      "administrative": 8762,
      "extensively": 8763,
      "Kentucky": 8764,
      "evacuated": 8765,
      "translation": 8766,
      "detected": 8767,
      "imagery": 8768,
      "Independence": 8769,
      "Children": 8770,
      "dispute": 8771,
      "virtually": 8772,
      "Nielsen": 8773,
      "Transportation": 8774,
      "Natural": 8775,
      "Brooks": 8776,
      "embarked": 8777,
      "Yankees": 8778,
      "diagno": 8779,
      "Jacob": 8780,
      "Dakota": 8781,
      "Caesar": 8782,
      "osexual": 8783,
      "Wanderers": 8784,
      "familiar": 8785,
      "Valkyria": 8786,
      "Switzerland": 8787,
      "03": 8788,
      "360": 8789,
      "ABC": 8790,
      "Case": 8791,
      "EFA": 8792,
      "Pryce": 8793,
      "Tony": 8794,
      "Twent": 8795,
      "UEFA": 8796,
      "Yo": 8797,
      "oss": 8798,
      "phe": 8799,
      "pest": 8800,
      "punt": 8801,
      "racing": 8802,
      "sper": 8803,
      "vies": 8804,
      "vina": 8805,
      "vices": 8806,
      "inals": 8807,
      "inje": 8808,
      "inery": 8809,
      "thes": 8810,
      "reci": 8811,
      "enforce": 8812,
      "stim": 8813,
      "icia": 8814,
      "roots": 8815,
      "acru": 8816,
      "adheera": 8817,
      "deity": 8818,
      "irates": 8819,
      "consu": 8820,
      "confront": 8821,
      "agu": 8822,
      "aganda": 8823,
      "shr": 8824,
      "illas": 8825,
      "akum": 8826,
      "boys": 8827,
      "Heaven": 8828,
      "guy": 8829,
      "prev": 8830,
      "scope": 8831,
      "intersects": 8832,
      "retain": 8833,
      "govina": 8834,
      "surge": 8835,
      "identify": 8836,
      "continental": 8837,
      "Beth": 8838,
      "Ship": 8839,
      "starter": 8840,
      "Carmel": 8841,
      "weekly": 8842,
      "construct": 8843,
      "Herze": 8844,
      "personally": 8845,
      "personality": 8846,
      "handed": 8847,
      "fewer": 8848,
      "Library": 8849,
      "McCar": 8850,
      "Compan": 8851,
      "competed": 8852,
      "Polit": 8853,
      "Province": 8854,
      "anticip": 8855,
      "Bertin": 8856,
      "vertical": 8857,
      "Magadheera": 8858,
      "motif": 8859,
      "Madrid": 8860,
      "compliment": 8861,
      "machines": 8862,
      "quarterback": 8863,
      "Emmy": 8864,
      "Veracru": 8865,
      "spoken": 8866,
      "Holoc": 8867,
      "evolved": 8868,
      "printing": 8869,
      "temperatures": 8870,
      "prisoners": 8871,
      "offering": 8872,
      "exhibition": 8873,
      "squadrons": 8874,
      "Waterfall": 8875,
      "Cheval": 8876,
      "mechanical": 8877,
      "advertis": 8878,
      "sacrific": 8879,
      "resolution": 8880,
      "neutral": 8881,
      "patrols": 8882,
      "accomplish": 8883,
      "citizens": 8884,
      "Tokyo": 8885,
      "Herzegovina": 8886,
      "Veracruz": 8887,
      "Holocaust": 8888,
      "117": 8889,
      "Bush": 8890,
      "Catechism": 8891,
      "Dri": 8892,
      "Face": 8893,
      "Gib": 8894,
      "Hend": 8895,
      "Mir": 8896,
      "Nar": 8897,
      "Pier": 8898,
      "Sony": 8899,
      "Voy": 8900,
      "Wag": 8901,
      "cave": 8902,
      "dles": 8903,
      "flies": 8904,
      "gren": 8905,
      "ole": 8906,
      "pace": 8907,
      "pione": 8908,
      "wick": 8909,
      "insur": 8910,
      "reactions": 8911,
      "orious": 8912,
      "enti": 8913,
      "omtav": 8914,
      "behalf": 8915,
      "deterior": 8916,
      "whilst": 8917,
      "agency": 8918,
      "appreci": 8919,
      "eties": 8920,
      "etime": 8921,
      "shut": 8922,
      "estyle": 8923,
      "queen": 8924,
      "afted": 8925,
      "Charts": 8926,
      "comprom": 8927,
      "grid": 8928,
      "graves": 8929,
      "okovic": 8930,
      "prefect": 8931,
      "scorer": 8932,
      "raids": 8933,
      "minster": 8934,
      "fron": 8935,
      "produces": 8936,
      "Asomtav": 8937,
      "memb": 8938,
      "origins": 8939,
      "decisions": 8940,
      "Beet": 8941,
      "Conservation": 8942,
      "placing": 8943,
      "Marie": 8944,
      "asking": 8945,
      "solar": 8946,
      "reaches": 8947,
      "Trust": 8948,
      "ahi": 8949,
      "sentences": 8950,
      "Westminster": 8951,
      "explicit": 8952,
      "corps": 8953,
      "facts": 8954,
      "margin": 8955,
      "destroyer": 8956,
      "flew": 8957,
      "approaching": 8958,
      "Neil": 8959,
      "acceptable": 8960,
      "motiv": 8961,
      "flooded": 8962,
      "transported": 8963,
      "maintaining": 8964,
      "Evans": 8965,
      "Country": 8966,
      "preparing": 8967,
      "credits": 8968,
      "objectives": 8969,
      "Congo": 8970,
      "Official": 8971,
      "successive": 8972,
      "wealthy": 8973,
      "devast": 8974,
      "Djokovic": 8975,
      "patterns": 8976,
      "Books": 8977,
      "opposing": 8978,
      "Blood": 8979,
      "Return": 8980,
      "Kirk": 8981,
      "components": 8982,
      "routing": 8983,
      "dimen": 8984,
      "frigates": 8985,
      "neighborhood": 8986,
      "WASP": 8987,
      "accompanying": 8988,
      "Scientologists": 8989,
      "brigades": 8990,
      "interpreted": 8991,
      "kilometers": 8992,
      "Napoleon": 8993,
      "Wagner": 8994,
      "Asomtavruli": 8995,
      "Astr": 8996,
      "Abr": 8997,
      "Cred": 8998,
      "Ey": 8999,
      "Eight": 9000,
      "Ida": 9001,
      "Near": 9002,
      "TNA": 9003,
      "Youth": 9004,
      "Yellow": 9005,
      "cup": 9006,
      "cous": 9007,
      "duration": 9008,
      "eign": 9009,
      "gars": 9010,
      "hPa": 9011,
      "ifer": 9012,
      "ji": 9013,
      "jan": 9014,
      "ko": 9015,
      "lord": 9016,
      "mac": 9017,
      "rains": 9018,
      "sin": 9019,
      "snow": 9020,
      "sample": 9021,
      "vir": 9022,
      "intel": 9023,
      "indeed": 9024,
      "onwards": 9025,
      "reforms": 9026,
      "touring": 9027,
      "lee": 9028,
      "acles": 9029,
      "ola": 9030,
      "celer": 9031,
      "1922": 9032,
      "plas": 9033,
      "proportion": 9034,
      "embr": 9035,
      "coord": 9036,
      "Champions": 9037,
      "bore": 9038,
      "worn": 9039,
      "commenced": 9040,
      "displaced": 9041,
      "buy": 9042,
      "angered": 9043,
      "ieth": 9044,
      "supplement": 9045,
      "Cooper": 9046,
      "mathem": 9047,
      "Work": 9048,
      "Contin": 9049,
      "Mariana": 9050,
      "valid": 9051,
      "ordering": 9052,
      "commanders": 9053,
      "eventual": 9054,
      "explain": 9055,
      "facil": 9056,
      "22nd": 9057,
      "Charlot": 9058,
      "tours": 9059,
      "tourist": 9060,
      "representation": 9061,
      "commentary": 9062,
      "1889": 9063,
      "vicinity": 9064,
      "clothing": 9065,
      "housed": 9066,
      "Priest": 9067,
      "Prize": 9068,
      "archaeologist": 9069,
      "Southeast": 9070,
      "boxing": 9071,
      "reinforced": 9072,
      "girls": 9073,
      "policies": 9074,
      "escaped": 9075,
      "documented": 9076,
      "rhyme": 9077,
      "pretty": 9078,
      "repairs": 9079,
      "Ernest": 9080,
      "shift": 9081,
      "governments": 9082,
      "volunteers": 9083,
      "Girl": 9084,
      "universities": 9085,
      "Cubs": 9086,
      "wishes": 9087,
      "component": 9088,
      "dubbed": 9089,
      "Joshua": 9090,
      "hydrogen": 9091,
      "Islamic": 9092,
      "conscious": 9093,
      "stellar": 9094,
      "mystery": 9095,
      "Imagine": 9096,
      "Guinea": 9097,
      "intellect": 9098,
      "Charlotte": 9099,
      "Aman": 9100,
      "Esh": 9101,
      "Fig": 9102,
      "Farm": 9103,
      "Hun": 9104,
      "Herald": 9105,
      "Jen": 9106,
      "Lane": 9107,
      "Morgan": 9108,
      "Nev": 9109,
      "Omar": 9110,
      "PC": 9111,
      "Terror": 9112,
      "Xenon": 9113,
      "aire": 9114,
      "bac": 9115,
      "cavalry": 9116,
      "loud": 9117,
      "trend": 9118,
      "vital": 9119,
      "wa": 9120,
      "yl": 9121,
      "thrown": 9122,
      "innov": 9123,
      "edited": 9124,
      "rep": 9125,
      "rene": 9126,
      "stress": 9127,
      "tot": 9128,
      "isle": 9129,
      "headdress": 9130,
      "acids": 9131,
      "veter": 9132,
      "owa": 9133,
      "agod": 9134,
      "platinum": 9135,
      "umbus": 9136,
      "ears": 9137,
      "Inc": 9138,
      "shorter": 9139,
      "trick": 9140,
      "artistic": 9141,
      "eme": 9142,
      "peoples": 9143,
      "code": 9144,
      "acked": 9145,
      "essay": 9146,
      "feeding": 9147,
      "pray": 9148,
      "attor": 9149,
      "autom": 9150,
      "compre": 9151,
      "compilation": 9152,
      "disput": 9153,
      "dispers": 9154,
      "canal": 9155,
      "fourteen": 9156,
      "publishing": 9157,
      "Leigh": 9158,
      "choose": 9159,
      "hospit": 9160,
      "runners": 9161,
      "presentation": 9162,
      "sixteen": 9163,
      "reader": 9164,
      "Columbus": 9165,
      "Heritage": 9166,
      "priv": 9167,
      "hamlet": 9168,
      "realistic": 9169,
      "23rd": 9170,
      "Interchange": 9171,
      "Romanian": 9172,
      "industries": 9173,
      "travell": 9174,
      "animated": 9175,
      "connecting": 9176,
      "Blu": 9177,
      "approaches": 9178,
      "horiz": 9179,
      "Federation": 9180,
      "oxide": 9181,
      "Centre": 9182,
      "Finally": 9183,
      "SAS": 9184,
      "poetic": 9185,
      "blocked": 9186,
      "depicting": 9187,
      "boundaries": 9188,
      "championships": 9189,
      "ultimate": 9190,
      "observation": 9191,
      "Species": 9192,
      "solely": 9193,
      "rushed": 9194,
      "neighbour": 9195,
      "loyd": 9196,
      "distinguish": 9197,
      "comprised": 9198,
      "cotton": 9199,
      "suddenly": 9200,
      "indigenous": 9201,
      "Description": 9202,
      "disturbance": 9203,
      "Robinson": 9204,
      "vulner": 9205,
      "conversation": 9206,
      "seventeen": 9207,
      "Wicca": 9208,
      "oxygen": 9209,
      "Chevaliers": 9210,
      "Eshmun": 9211,
      "Nevada": 9212,
      "230": 9213,
      "Av": 9214,
      "Bos": 9215,
      "Cas": 9216,
      "Cir": 9217,
      "Dog": 9218,
      "Dah": 9219,
      "Ghost": 9220,
      "Know": 9221,
      "MV": 9222,
      "Mas": 9223,
      "Mur": 9224,
      "Publ": 9225,
      "Peach": 9226,
      "Rhys": 9227,
      "Sem": 9228,
      "categ": 9229,
      "fro": 9230,
      "gian": 9231,
      "gift": 9232,
      "pages": 9233,
      "sitting": 9234,
      "ux": 9235,
      "inian": 9236,
      "unnamed": 9237,
      "rebellion": 9238,
      "toler": 9239,
      "helium": 9240,
      "seats": 9241,
      "chain": 9242,
      "tern": 9243,
      "conqu": 9244,
      "constit": 9245,
      "contrad": 9246,
      "usive": 9247,
      "otions": 9248,
      "ulls": 9249,
      "clin": 9250,
      "shirt": 9251,
      "tran": 9252,
      "ighth": 9253,
      "cock": 9254,
      "Stav": 9255,
      "ultan": 9256,
      "brain": 9257,
      "themed": 9258,
      "relev": 9259,
      "backs": 9260,
      "paras": 9261,
      "ungle": 9262,
      "signs": 9263,
      "pleasure": 9264,
      "runway": 9265,
      "passion": 9266,
      "Marg": 9267,
      "statements": 9268,
      "Section": 9269,
      "Carre": 9270,
      "aski": 9271,
      "characteristic": 9272,
      "tracked": 9273,
      "courses": 9274,
      "justice": 9275,
      "Christine": 9276,
      "factor": 9277,
      "traded": 9278,
      "entertainment": 9279,
      "Dynasty": 9280,
      "pitching": 9281,
      "functions": 9282,
      "pairs": 9283,
      "avia": 9284,
      "Blues": 9285,
      "profession": 9286,
      "Abbey": 9287,
      "Collection": 9288,
      "archaeologists": 9289,
      "indicates": 9290,
      "remind": 9291,
      "flowers": 9292,
      "bombs": 9293,
      "demonstr": 9294,
      "Studies": 9295,
      "Philippine": 9296,
      "pilots": 9297,
      "junior": 9298,
      "replacing": 9299,
      "punishment": 9300,
      "Hawaiian": 9301,
      "molecules": 9302,
      "recommend": 9303,
      "Community": 9304,
      "translated": 9305,
      "illustrated": 9306,
      "beliefs": 9307,
      "flagship": 9308,
      "Malaysia": 9309,
      "Sweden": 9310,
      "Michel": 9311,
      "aerial": 9312,
      "Leonard": 9313,
      "Dodgers": 9314,
      "Ambassador": 9315,
      "Pulaski": 9316,
      "consolid": 9317,
      "01": 9318,
      "AT": 9319,
      "Ade": 9320,
      "Born": 9321,
      "Cullen": 9322,
      "Dor": 9323,
      "Dud": 9324,
      "Fif": 9325,
      "Grom": 9326,
      "Had": 9327,
      "List": 9328,
      "Lud": 9329,
      "Mix": 9330,
      "Prest": 9331,
      "Sign": 9332,
      "ZA": 9333,
      "dale": 9334,
      "danger": 9335,
      "iate": 9336,
      "iently": 9337,
      "ön": 9338,
      "restrial": 9339,
      "atically": 9340,
      "enzy": 9341,
      "ashore": 9342,
      "iso": 9343,
      "rol": 9344,
      "acceler": 9345,
      "seized": 9346,
      "urally": 9347,
      "olen": 9348,
      "liqu": 9349,
      "divers": 9350,
      "Intelligence": 9351,
      "shallow": 9352,
      "shrine": 9353,
      "trails": 9354,
      "exem": 9355,
      "perceived": 9356,
      "updated": 9357,
      "Staff": 9358,
      "achi": 9359,
      "achment": 9360,
      "attitude": 9361,
      "timber": 9362,
      "partnership": 9363,
      "spark": 9364,
      "ansfield": 9365,
      "fined": 9366,
      "speaker": 9367,
      "mont": 9368,
      "raia": 9369,
      "registered": 9370,
      "coloss": 9371,
      "obst": 9372,
      "105": 9373,
      "tonnes": 9374,
      "hook": 9375,
      "transmission": 9376,
      "signal": 9377,
      "ceratop": 9378,
      "Johnny": 9379,
      "naming": 9380,
      "ideal": 9381,
      "eastward": 9382,
      "continuous": 9383,
      "requires": 9384,
      "laide": 9385,
      "ibis": 9386,
      "varied": 9387,
      "caster": 9388,
      "urring": 9389,
      "Indians": 9390,
      "240": 9391,
      "24th": 9392,
      "Maur": 9393,
      "reportedly": 9394,
      "Parker": 9395,
      "authorized": 9396,
      "Performan": 9397,
      "Edge": 9398,
      "charted": 9399,
      "ambassador": 9400,
      "estimates": 9401,
      "RAR": 9402,
      "reduction": 9403,
      "Valve": 9404,
      "certainly": 9405,
      "positively": 9406,
      "Operations": 9407,
      "questions": 9408,
      "riding": 9409,
[...]
